<unk>	0
<s>	0
</s>	0
▁c	-0
▁(	-1
oz	-2
▁ch	-3
te	-4
▁b	-5
▁s	-6
es	-7
la	-8
ar	-9
▁m	-10
er	-11
co	-12
▁p	-13
an	-14
▁(1	-15
▁che	-16
in	-17
on	-18
oco	-19
re	-20
▁chees	-21
▁cheese	-22
▁choco	-23
late	-24
▁chocolate	-25
▁f	-26
il	-27
le	-28
▁h	-29
al	-30
en	-31
▁d	-32
▁t	-33
ic	-34
▁co	-35
▁g	-36
▁w	-37
▁&	-38
▁o	-39
at	-40
.5	-41
ac	-42
ro	-43
ki	-44
ilk	-45
am	-46
ut	-47
el	-48
it	-49
▁milk	-50
ed	-51
▁coo	-52
ra	-53
un	-54
ey	-55
▁(2	-56
is	-57
▁cooki	-58
ur	-59
▁pe	-60
ter	-61
▁(5	-62
as	-63
ak	-64
▁n	-65
lo	-66
▁en	-67
▁(4	-68
et	-69
ry	-70
▁hon	-71
▁cookie	-72
ri	-73
▁honey	-74
us	-75
▁(1.	-76
▁(3	-77
▁st	-78
▁wh	-79
▁e	-80
▁(8	-81
ch	-82
ip	-83
▁sa	-84
▁v	-85
▁(6	-86
ack	-87
▁k	-88
▁bar	-89
ag	-90
gy	-91
ark	-92
or	-93
ergy	-94
▁energy	-95
ach	-96
▁j	-97
▁cre	-98
li	-99
▁1	-100
gg	-101
erry	-102
▁chip	-103
ing	-104
ad	-105
dd	-106
▁dark	-107
lb	-108
ers	-109
▁al	-110
▁or	-111
mon	-112
▁peach	-113
▁(7	-114
▁on	-115
▁fr	-116
▁cream	-117
ite	-118
ith	-119
gan	-120
▁egg	-121
pp	-122
▁2	-123
ree	-124
▁of	-125
ake	-126
▁with	-127
oo	-128
.2	-129
▁la	-130
uc	-131
▁(16	-132
ff	-133
ick	-134
▁bo	-135
and	-136
▁organ	-137
▁ro	-138
▁organic	-139
▁be	-140
▁cr	-141
▁sp	-142
una	-143
utter	-144
.7	-145
▁(12	-146
▁fat	-147
lad	-148
berry	-149
▁butter	-150
bq	-151
▁bbq	-152
anut	-153
ou	-154
▁re	-155
▁a	-156
▁tuna	-157
gal	-158
▁ham	-159
mond	-160
▁ho	-161
▁almond	-162
▁sh	-163
ul	-164
▁mi	-165
▁(10	-166
um	-167
▁peanut	-168
zz	-169
▁r	-170
▁pro	-171
▁salad	-172
.8	-173
ve	-174
▁ba	-175
st	-176
lu	-177
▁cookies	-178
arm	-179
ole	-180
.3	-181
▁te	-182
wn	-183
ie	-184
▁min	-185
▁su	-186
to	-187
age	-188
▁po	-189
me	-190
▁y	-191
▁free	-192
▁th	-193
ich	-194
▁lo	-195
th	-196
▁ra	-197
▁whole	-198
00	-199
ble	-200
▁fres	-201
▁white	-202
ted	-203
ig	-204
▁farm	-205
con	-206
▁dou	-207
▁fresh	-208
ast	-209
▁tea	-210
ood	-211
▁ki	-212
▁tur	-213
key	-214
up	-215
▁(.5	-216
▁(9	-217
.4	-218
ys	-219
▁go	-220
uff	-221
▁chedd	-222
▁gr	-223
▁turkey	-224
▁sn	-225
ver	-226
▁cheddar	-227
illa	-228
▁gre	-229
ck	-230
ge	-231
▁chick	-232
▁le	-233
oy	-234
ee	-235
▁3	-236
▁sw	-237
▁box	-238
est	-239
▁oat	-240
▁(1.5	-241
iss	-242
read	-243
ant	-244
uit	-245
▁chicken	-246
.1	-247
▁sand	-248
▁cro	-249
wich	-250
ss	-251
▁red	-252
▁ca	-253
os	-254
hi	-255
ine	-256
▁bacon	-257
usage	-258
▁sausage	-259
ure	-260
.6	-261
og	-262
▁prote	-263
▁car	-264
▁sandwich	-265
▁protein	-266
ice	-267
▁se	-268
▁l	-269
ess	-270
▁2%	-271
▁in	-272
nut	-273
▁farms	-274
nd	-275
.75	-276
ard	-277
▁green	-278
.25	-279
▁nut	-280
ille	-281
▁kit	-282
ay	-283
gh	-284
ger	-285
ill	-286
qu	-287
▁bag	-288
mp	-289
ion	-290
▁pre	-291
gar	-292
lue	-293
▁to	-294
▁sm	-295
▁del	-296
cake	-297
▁van	-298
▁yog	-299
eat	-300
▁li	-301
▁gra	-302
▁blue	-303
.9	-304
chen	-305
ked	-306
urt	-307
unch	-308
▁mac	-309
▁sal	-310
▁yogurt	-311
ai	-312
bo	-313
▁kitchen	-314
▁(11	-315
▁bak	-316
joy	-317
▁vanilla	-318
raw	-319
▁(3.5	-320
ate	-321
▁pack	-322
▁sugar	-323
pper	-324
▁straw	-325
ia	-326
▁enjoy	-327
ust	-328
bur	-329
▁wa	-330
ll	-331
ink	-332
ld	-333
tte	-334
town	-335
▁mini	-336
▁bro	-337
▁coco	-338
▁double	-339
tt	-340
ddle	-341
▁pepper	-342
ddletown	-343
▁strawberry	-344
▁bee	-345
▁nat	-346
▁middletown	-347
art	-348
rig	-349
amel	-350
zel	-351
ish	-352
▁caramel	-353
ann	-354
▁so	-355
▁low	-356
gf	-357
ten	-358
▁#	-359
▁char	-360
▁dr	-361
▁cup	-362
▁mgf	-363
▁hot	-364
▁(1.7	-365
iced	-366
▁(1.4	-367
uced	-368
▁reduced	-369
mi	-370
▁(14	-371
▁stre	-372
▁(4.5	-373
▁chips	-374
▁cheesebur	-375
▁de	-376
▁(5.5	-377
im	-378
tle	-379
▁snack	-380
▁wheat	-381
uffin	-382
▁cheeseburger	-383
▁mo	-384
▁muffin	-385
ley	-386
▁jack	-387
ft	-388
pple	-389
▁the	-390
ang	-391
▁street	-392
▁roll	-393
issant	-394
▁croissant	-395
▁am	-396
▁coconut	-397
eet	-398
ins	-399
▁un	-400
▁cheesecake	-401
▁beef	-402
▁bun	-403
▁val	-404
lotte	-405
▁mix	-406
▁mon	-407
▁charlotte	-408
▁bean	-409
▁sun	-410
ari	-411
▁(1.2	-412
▁bite	-413
▁bre	-414
▁pret	-415
▁pretzel	-416
ars	-417
rit	-418
▁fruit	-419
ort	-420
all	-421
op	-422
▁fi	-423
▁sweet	-424
▁bis	-425
ork	-426
▁orig	-427
zzz	-428
▁zzz	-429
▁cake	-430
inal	-431
ct	-432
▁z	-433
ous	-434
▁bla	-435
▁(5.3	-436
▁star	-437
▁original	-438
ffee	-439
▁9	-440
unk	-441
▁brown	-442
▁4	-443
▁(2.5	-444
▁crack	-445
ly	-446
▁5	-447
milk	-448
▁salt	-449
▁cooked	-450
ber	-451
rid	-452
▁1%	-453
▁comp	-454
▁7	-455
▁(15	-456
sp	-457
pen	-458
▁bur	-459
▁crunch	-460
ato	-461
fe	-462
▁6	-463
▁deli	-464
▁(32	-465
▁valley	-466
rs	-467
ala	-468
▁good	-469
ce	-470
▁cul	-471
▁wra	-472
▁dough	-473
▁lemon	-474
▁sl	-475
▁rasp	-476
▁bagel	-477
▁8	-478
▁almonds	-479
pt	-480
isp	-481
les	-482
0)	-483
▁pi	-484
▁(7.5	-485
▁bites	-486
bar	-487
▁he	-488
▁tra	-489
oni	-490
▁mint	-491
▁raspberry	-492
▁tr	-493
▁pla	-494
illed	-495
ew	-496
▁wrap	-497
eric	-498
▁drink	-499
▁ri	-500
land	-501
▁sea	-502
av	-503
asted	-504
ville	-505
▁ket	-506
01	-507
▁18	-508
▁ice	-509
▁cross	-510
ir	-511
▁me	-512
▁coffee	-513
▁crosse	-514
ub	-515
box	-516
▁her	-517
rie	-518
▁qu	-519
▁ve	-520
▁stick	-521
▁cherry	-522
▁brownie	-523
ety	-524
uce	-525
▁(6.5	-526
▁vari	-527
▁black	-528
ano	-529
▁culin	-530
any	-531
▁variety	-532
ta	-533
▁inter	-534
▁water	-535
ci	-536
ary	-537
▁tw	-538
▁(20	-539
▁clo	-540
luten	-541
pe	-542
kim	-543
▁cal	-544
▁rais	-545
▁gluten	-546
id	-547
ol	-548
airy	-549
▁oatme	-550
qt	-551
ade	-552
ass	-553
fat	-554
▁fla	-555
▁flo	-556
▁fro	-557
▁(1.6	-558
▁baked	-559
▁greenville	-560
ty	-561
uck	-562
ven	-563
ango	-564
▁kon	-565
▁company	-566
ino	-567
alapen	-568
▁crisp	-569
▁konop	-570
▁burrit	-571
▁clover	-572
▁ex	-573
cuit	-574
▁100	-575
▁dip	-576
▁(2.1	-577
alapeno	-578
▁burrito	-579
▁vit	-580
▁bread	-581
▁mango	-582
▁oatmeal	-583
▁jalapeno	-584
raft	-585
teak	-586
state	-587
▁natur	-588
▁biscuit	-589
▁iced	-590
▁skim	-591
▁dairy	-592
inn	-593
reek	-594
▁must	-595
terers	-596
▁greek	-597
▁swiss	-598
▁caterers	-599
▁interstate	-600
ud	-601
ind	-602
▁mustard	-603
▁24	-604
▁sauce	-605
igh	-606
lass	-607
▁smo	-608
▁(1.8	-609
▁culinary	-610
ell	-611
nat	-612
▁tri	-613
anola	-614
▁cen	-615
▁(8.5	-616
▁roasted	-617
om	-618
one	-619
ot	-620
hey	-621
▁gi	-622
▁ta	-623
ring	-624
ershey	-625
▁granola	-626
ana	-627
▁(25	-628
inger	-629
▁chunk	-630
▁hershey	-631
▁pork	-632
▁apple	-633
▁kraft	-634
pr	-635
ster	-636
▁pure	-637
sh	-638
▁sub	-639
ery	-640
▁(13	-641
▁(1.3	-642
▁shake	-643
▁di	-644
amon	-645
rn	-646
cha	-647
▁par	-648
▁gold	-649
ts	-650
ult	-651
rida	-652
▁24)	-653
▁center	-654
▁nature	-655
▁grilled	-656
▁and	-657
▁pot	-658
▁florida	-659
ap	-660
▁(.8	-661
02	-662
ab	-663
▁si	-664
▁gum	-665
press	-666
▁kettle	-667
imm	-668
ries	-669
▁potato	-670
ouse	-671
▁cott	-672
▁(2.8	-673
▁bears	-674
▁class	-675
ent	-676
▁cottage	-677
anc	-678
ero	-679
ies	-680
fa	-681
ash	-682
ght	-683
met	-684
ange	-685
bread	-686
▁five	-687
▁land	-688
▁natural	-689
▁hersheys	-690
rop	-691
ello	-692
ready	-693
vered	-694
▁break	-695
▁covered	-696
▁crackers	-697
06	-698
ili	-699
▁ha	-700
▁sy	-701
live	-702
▁(64	-703
▁pop	-704
▁wed	-705
▁classic	-706
lid	-707
fait	-708
sted	-709
▁(24	-710
▁spe	-711
▁food	-712
▁(1.76	-713
▁creme	-714
▁olive	-715
▁parfait	-716
ze	-717
ild	-718
amin	-719
▁mar	-720
▁berry	-721
▁americ	-722
12	-723
▁x	-724
▁ginger	-725
▁american	-726
if	-727
▁speci	-728
▁wedge	-729
▁frosted	-730
▁don	-731
▁ball	-732
▁spark	-733
▁vitamin	-734
05	-735
ian	-736
ling	-737
annas	-738
urmet	-739
▁orange	-740
▁smoked	-741
▁giannas	-742
▁gourmet	-743
udd	-744
▁chew	-745
▁sliced	-746
▁cho	-747
ale	-748
zza	-749
fast	-750
▁big	-751
▁pie	-752
rup	-753
wer	-754
▁aven	-755
▁silk	-756
▁light	-757
▁roast	-758
▁syrup	-759
▁monster	-760
▁(.7	-761
75	-762
ucc	-763
▁(9.5	-764
der	-765
rai	-766
▁(1.9	-767
▁hill	-768
▁prai	-769
▁prairie	-770
sw	-771
100	-772
ped	-773
akes	-774
▁rock	-775
▁zero	-776
▁avenel	-777
▁raisin	-778
▁sparkling	-779
usc	-780
▁ban	-781
▁cran	-782
▁trip	-783
▁(10.5	-784
▁herrs	-785
▁blueberry	-786
af	-787
ais	-788
apple	-789
nt	-790
ow	-791
▁br	-792
▁cit	-793
▁(.75	-794
▁cinn	-795
▁oats	-796
▁macar	-797
▁pizza	-798
▁breakfast	-799
ke	-800
ny	-801
▁+	-802
man	-803
▁12	-804
▁do	-805
eeten	-806
ppucc	-807
ppuccino	-808
na	-809
arl	-810
vol	-811
▁jo	-812
pack	-813
▁squ	-814
▁dean	-815
thouse	-816
▁steak	-817
▁bakery	-818
▁lowfat	-819
se	-820
▁soft	-821
▁dress	-822
▁premi	-823
ets	-824
ters	-825
▁cinnamon	-826
mb	-827
ton	-828
zon	-829
ento	-830
hill	-831
▁lof	-832
▁per	-833
▁sup	-834
▁rice	-835
▁dressing	-836
▁lofthouse	-837
lif	-838
agie	-839
▁goat	-840
▁(1.41	-841
▁(1.75	-842
▁short	-843
eetened	-844
▁banana	-845
▁hoagie	-846
▁special	-847
▁best	-848
▁unsw	-849
▁grape	-850
▁cupcake	-851
ere	-852
ini	-853
ancy	-854
▁cur	-855
▁(2.2	-856
ao	-857
elp	-858
way	-859
yle	-860
able	-861
ani	-862
elli	-863
▁tor	-864
▁spic	-865
▁chili	-866
▁vegan	-867
▁triple	-868
▁unsweetened	-869
ella	-870
tere	-871
▁mrs	-872
▁(2.6	-873
▁clif	-874
zed	-875
▁#1	-876
▁hi	-877
▁no	-878
▁ot	-879
▁gen	-880
shine	-881
▁heart	-882
▁macaroni	-883
▁pepperoni	-884
hia	-885
hir	-886
▁15	-887
▁phi	-888
elphia	-889
ardelli	-890
▁philad	-891
▁cappuccino	-892
▁philadelphia	-893
03	-894
04	-895
08	-896
ug	-897
lik	-898
ump	-899
▁ne	-900
▁(18	-901
▁fud	-902
▁flav	-903
▁flik	-904
▁sala	-905
▁salted	-906
▁string	-907
▁sunshine	-908
hirardelli	-909
ern	-910
ren	-911
tti	-912
▁ass	-913
▁bas	-914
▁(8.4	-915
▁cafe	-916
▁trop	-917
▁spicy	-918
65	-919
ive	-920
▁sig	-921
anish	-922
▁chewy	-923
▁fancy	-924
▁grain	-925
▁tropic	-926
bro	-927
eld	-928
▁ge	-929
ight	-930
ooth	-931
▁waf	-932
▁pudd	-933
nature	-934
▁pudding	-935
▁pretzels	-936
▁ghirardelli	-937
ba	-938
ue	-939
kin	-940
▁med	-941
▁new	-942
▁(1.1	-943
▁(4.8	-944
▁just	-945
▁lime	-946
▁pump	-947
▁(16.9	-948
▁fudge	-949
▁great	-950
▁salami	-951
▁sticks	-952
▁premium	-953
ina	-954
int	-955
▁raw	-956
▁wal	-957
uscle	-958
▁three	-959
▁danish	-960
▁dipped	-961
▁muscle	-962
▁tropical	-963
▁signature	-964
rye	-965
▁it	-966
anch	-967
ants	-968
ashi	-969
leys	-970
▁hal	-971
▁out	-972
▁pat	-973
pants	-974
▁york	-975
▁(2.75	-976
▁(4.25	-977
▁onion	-978
▁power	-979
▁fancypants	-980
07	-981
09	-982
ga	-983
mas	-984
umbo	-985
▁bay	-986
▁cle	-987
▁rye	-988
▁(2.4	-989
▁dove	-990
▁nach	-991
▁thin	-992
25	-993
da	-994
io	-995
▁sk	-996
corn	-997
▁can	-998
▁eng	-999
▁soy	-1000
▁(11.5	-1001
▁calif	-1002
▁squar	-1003
lan	-1004
uel	-1005
▁ar	-1006
▁es	-1007
▁bel	-1008
▁moz	-1009
▁non	-1010
▁pan	-1011
▁kind	-1012
▁grand	-1013
▁nacho	-1014
▁super	-1015
▁smooth	-1016
▁cracker	-1017
▁cranberry	-1018
our	-1019
asty	-1020
▁ult	-1021
▁(4.4	-1022
0%	-1023
ist	-1024
zar	-1025
ious	-1026
▁con	-1027
▁chef	-1028
▁meat	-1029
▁tray	-1030
▁twin	-1031
▁minis	-1032
▁buttermilk	-1033
led	-1034
mel	-1035
ook	-1036
shi	-1037
▁ma	-1038
ment	-1039
rain	-1040
▁all	-1041
▁app	-1042
▁bon	-1043
▁eur	-1044
ional	-1045
shire	-1046
takes	-1047
▁clean	-1048
▁donut	-1049
▁ranch	-1050
▁tasty	-1051
zarella	-1052
▁eurest	-1053
▁crunchy	-1054
▁pumpkin	-1055
▁outtakes	-1056
▁shortbread	-1057
tr	-1058
pes	-1059
▁32	-1060
erre	-1061
▁gla	-1062
ereal	-1063
▁pine	-1064
icious	-1065
▁jumbo	-1066
▁plain	-1067
▁truff	-1068
▁cereal	-1069
▁pineapple	-1070
▁mozzarella	-1071
car	-1072
kes	-1073
uly	-1074
ucks	-1075
▁(.3	-1076
▁ble	-1077
▁ful	-1078
▁ore	-1079
▁simp	-1080
ellogg	-1081
▁foods	-1082
▁gummi	-1083
▁tilla	-1084
▁express	-1085
▁generic	-1086
ah	-1087
ls	-1088
rk	-1089
igo	-1090
ler	-1091
ices	-1092
mook	-1093
redd	-1094
ryst	-1095
▁ext	-1096
▁sar	-1097
inach	-1098
▁(5.2	-1099
▁jimm	-1100
▁mult	-1101
rystal	-1102
zelnut	-1103
▁flavor	-1104
▁slices	-1105
▁spinach	-1106
▁tillamook	-1107
gr	-1108
aid	-1109
che	-1110
ise	-1111
son	-1112
und	-1113
▁el	-1114
ings	-1115
lish	-1116
ried	-1117
▁bul	-1118
▁har	-1119
igold	-1120
immys	-1121
▁(4.2	-1122
▁(6.3	-1123
▁lays	-1124
presso	-1125
▁jimmy	-1126
▁bimmys	-1127
▁pierre	-1128
▁bestway	-1129
▁kellogg	-1130
▁hazelnut	-1131
▁freshleys	-1132
by	-1133
yd	-1134
ens	-1135
log	-1136
rock	-1137
tain	-1138
bucks	-1139
▁bear	-1140
▁cash	-1141
▁mars	-1142
▁seed	-1143
▁spro	-1144
redded	-1145
▁bolog	-1146
▁chuck	-1147
▁latte	-1148
arigold	-1149
▁shredded	-1150
▁starbucks	-1151
11	-1152
ese	-1153
▁ac	-1154
adam	-1155
lect	-1156
▁brew	-1157
▁kirk	-1158
▁trail	-1159
▁cashew	-1160
▁bologna	-1161
▁popcorn	-1162
▁darigold	-1163
▁espresso	-1164
▁kirkland	-1165
▁chuckanut	-1166
cr	-1167
alo	-1168
lus	-1169
eyer	-1170
kake	-1171
▁cow	-1172
▁may	-1173
▁pet	-1174
▁(3.2	-1175
▁buff	-1176
▁nuts	-1177
▁past	-1178
▁sham	-1179
▁shot	-1180
esteak	-1181
▁(1.25	-1182
▁(2.25	-1183
▁truly	-1184
▁glazed	-1185
▁crystal	-1186
▁peanuts	-1187
▁raisins	-1188
▁cheesesteak	-1189
ium	-1190
low	-1191
rus	-1192
ells	-1193
star	-1194
▁(.9	-1195
▁lar	-1196
ittle	-1197
liday	-1198
rench	-1199
▁gumm	-1200
▁slid	-1201
adamia	-1202
▁(25.4	-1203
▁buffalo	-1204
▁english	-1205
▁holiday	-1206
▁shamrock	-1207
bu	-1208
unt	-1209
▁mel	-1210
terey	-1211
▁(4.3	-1212
▁pock	-1213
▁wild	-1214
volone	-1215
▁(13.5	-1216
▁mocha	-1217
▁ultra	-1218
▁french	-1219
▁grapes	-1220
▁little	-1221
▁sprout	-1222
▁walnut	-1223
▁monterey	-1224
▁provolone	-1225
▁tastykake	-1226
bb	-1227
ky	-1228
ms	-1229
oc	-1230
▁bow	-1231
▁fit	-1232
▁cold	-1233
▁oreo	-1234
▁rich	-1235
▁cocoa	-1236
▁pearl	-1237
berries	-1238
▁peaches	-1239
▁squares	-1240
▁rockstar	-1241
▁macadamia	-1242
fr	-1243
alth	-1244
▁luc	-1245
▁corn	-1246
▁herb	-1247
▁moun	-1248
▁parm	-1249
▁alter	-1250
▁extra	-1251
▁style	-1252
▁crispy	-1253
▁mountain	-1254
▁specialty	-1255
za	-1256
irl	-1257
▁(4.7	-1258
▁moon	-1259
▁plan	-1260
▁appet	-1261
▁fully	-1262
▁gummy	-1263
▁phill	-1264
ful	-1265
ham	-1266
lby	-1267
lor	-1268
ore	-1269
▁16	-1270
fect	-1271
idge	-1272
isco	-1273
itos	-1274
unkm	-1275
▁ber	-1276
▁cra	-1277
▁pul	-1278
rated	-1279
ridge	-1280
umble	-1281
▁(4.6	-1282
▁deco	-1283
▁(7.25	-1284
▁colby	-1285
▁river	-1286
▁toast	-1287
▁baking	-1288
▁filled	-1289
▁spunkm	-1290
▁appetit	-1291
▁perfect	-1292
▁pepperidge	-1293
▁spunkmeyer	-1294
de	-1295
ik	-1296
00)	-1297
cup	-1298
her	-1299
jack	-1300
▁tom	-1301
▁(4.9	-1302
▁bowl	-1303
▁mark	-1304
▁otis	-1305
▁shar	-1306
abisco	-1307
▁balls	-1308
▁snick	-1309
▁breast	-1310
▁citrus	-1311
▁health	-1312
▁sliders	-1313
13	-1314
use	-1315
yer	-1316
▁ed	-1317
▁ke	-1318
vest	-1319
▁365	-1320
▁str	-1321
▁veg	-1322
▁(2.3	-1323
▁(5.8	-1324
▁(5.9	-1325
▁tort	-1326
▁blend	-1327
▁philly	-1328
▁simply	-1329
▁nabisco	-1330
ltr	-1331
uth	-1332
▁ju	-1333
▁(17	-1334
▁for	-1335
▁pim	-1336
▁baby	-1337
▁sour	-1338
▁(2.12	-1339
▁bisco	-1340
▁lunch	-1341
▁crisps	-1342
▁spread	-1343
▁pimento	-1344
▁decorated	-1345
ava	-1346
▁nu	-1347
aker	-1348
mint	-1349
▁gro	-1350
aiser	-1351
▁(3.8	-1352
▁(4.1	-1353
▁(5.4	-1354
▁(6.6	-1355
▁calo	-1356
▁city	-1357
▁lean	-1358
▁love	-1359
▁prom	-1360
▁waff	-1361
▁(1.59	-1362
▁curls	-1363
▁think	-1364
▁thins	-1365
▁graham	-1366
▁kaiser	-1367
▁pulled	-1368
▁creamer	-1369
▁delight	-1370
▁harvest	-1371
▁oatmilk	-1372
▁truffle	-1373
▁delicious	-1374
ady	-1375
ita	-1376
ush	-1377
▁ft	-1378
inny	-1379
▁(22	-1380
▁(28	-1381
▁blo	-1382
▁tay	-1383
estle	-1384
untry	-1385
▁fuel	-1386
▁hard	-1387
▁ital	-1388
▁mild	-1389
▁seas	-1390
igrain	-1391
▁kashi	-1392
▁ready	-1393
▁veget	-1394
▁creamy	-1395
▁nestle	-1396
▁taylor	-1397
▁tomato	-1398
▁lemonade	-1399
▁multigrain	-1400
▁pepperjack	-1401
hn	-1402
ib	-1403
ix	-1404
ti	-1405
▁1/	-1406
andy	-1407
gran	-1408
ions	-1409
ombu	-1410
oned	-1411
▁art	-1412
▁lan	-1413
▁sam	-1414
oodle	-1415
▁fish	-1416
▁half	-1417
▁john	-1418
▁pome	-1419
▁assor	-1420
▁kombu	-1421
▁layer	-1422
▁mixed	-1423
▁smart	-1424
▁wafer	-1425
▁califia	-1426
▁kombucha	-1427
▁almondmilk	-1428
ace	-1429
bel	-1430
eta	-1431
law	-1432
lub	-1433
orn	-1434
ste	-1435
umm	-1436
▁#4	-1437
▁6"	-1438
▁em	-1439
▁xs	-1440
ates	-1441
pped	-1442
▁max	-1443
gento	-1444
rizon	-1445
▁bars	-1446
▁club	-1447
▁keto	-1448
▁deans	-1449
▁monin	-1450
▁sharp	-1451
▁nutrit	-1452
▁spring	-1453
▁toffee	-1454
▁horizon	-1455
▁assorted	-1456
▁pomegran	-1457
▁sargento	-1458
▁peppermint	-1459
dy	-1460
va	-1461
erd	-1462
ffe	-1463
▁gu	-1464
ured	-1465
▁(.6	-1466
▁20)	-1467
▁bri	-1468
▁dog	-1469
▁eas	-1470
▁hor	-1471
amond	-1472
▁(5.6	-1473
▁(5.7	-1474
▁sing	-1475
▁beans	-1476
▁bunny	-1477
▁table	-1478
▁quaker	-1479
▁country	-1480
▁diamond	-1481
▁alternat	-1482
▁landshire	-1483
bee	-1484
▁et	-1485
▁up	-1486
esqu	-1487
ioli	-1488
▁ftc	-1489
▁jer	-1490
▁lee	-1491
▁map	-1492
▁mat	-1493
▁nor	-1494
▁rav	-1495
▁sav	-1496
▁amys	-1497
▁hood	-1498
▁made	-1499
▁puff	-1500
▁vale	-1501
▁house	-1502
▁lance	-1503
▁medium	-1504
▁select	-1505
▁skinny	-1506
▁italian	-1507
▁pockets	-1508
▁alternative	-1509
▁pomegranate	-1510
81	-1511
cho	-1512
ios	-1513
its	-1514
uao	-1515
▁cd	-1516
erne	-1517
ream	-1518
▁ser	-1519
annon	-1520
esser	-1521
fruit	-1522
ntine	-1523
oster	-1524
stess	-1525
▁(8.8	-1526
▁100%	-1527
▁cool	-1528
▁lind	-1529
▁(4.75	-1530
▁blast	-1531
▁caffe	-1532
▁candy	-1533
▁chuao	-1534
▁grill	-1535
▁jerky	-1536
▁larry	-1537
▁marsh	-1538
▁sprig	-1539
▁(1.375	-1540
▁choice	-1541
▁comple	-1542
▁desser	-1543
▁hiland	-1544
erdoodle	-1545
▁hostess	-1546
▁lucerne	-1547
▁milkfat	-1548
▁snickerdoodle	-1549
5)	-1550
ha	-1551
▁i	-1552
ban	-1553
uss	-1554
▁bu	-1555
▁os	-1556
bani	-1557
ette	-1558
very	-1559
▁50)	-1560
▁ann	-1561
▁com	-1562
▁mex	-1563
broil	-1564
▁bull	-1565
▁four	-1566
▁gard	-1567
▁high	-1568
▁(1.23	-1569
▁(15.5	-1570
▁south	-1571
▁torte	-1572
▁foster	-1573
▁larrys	-1574
▁calorie	-1575
▁ravioli	-1576
fi	-1577
wa	-1578
dan	-1579
eep	-1580
eng	-1581
lon	-1582
ory	-1583
vie	-1584
▁as	-1585
▁my	-1586
otle	-1587
reme	-1588
ttle	-1589
▁(48	-1590
▁16)	-1591
▁cat	-1592
▁rib	-1593
▁rub	-1594
▁ste	-1595
▁tre	-1596
brown	-1597
melon	-1598
thers	-1599
▁(2.7	-1600
▁(6.1	-1601
▁cups	-1602
▁diet	-1603
▁eggs	-1604
▁feta	-1605
▁size	-1606
▁slaw	-1607
▁tcho	-1608
▁north	-1609
▁smith	-1610
▁stuff	-1611
▁garden	-1612
▁torani	-1613
▁healthy	-1614
▁chipotle	-1615
▁watermelon	-1616
83	-1617
he	-1618
no	-1619
den	-1620
nny	-1621
▁da	-1622
1007	-1623
acao	-1624
anny	-1625
fish	-1626
view	-1627
▁(30	-1628
▁12)	-1629
▁boo	-1630
▁lac	-1631
▁old	-1632
▁ton	-1633
▁way	-1634
▁(3.1	-1635
▁100)	-1636
▁garl	-1637
▁leaf	-1638
▁life	-1639
▁luna	-1640
▁(6.25	-1641
▁(7.75	-1642
▁artis	-1643
▁cacao	-1644
▁lenny	-1645
▁small	-1646
▁value	-1647
▁dannon	-1648
▁granny	-1649
▁chocolo	-1650
▁biscotti	-1651
▁complete	-1652
▁valentine	-1653
18	-1654
19	-1655
od	-1656
ok	-1657
pb	-1658
sa	-1659
ats	-1660
chi	-1661
▁45	-1662
▁ad	-1663
atta	-1664
ball	-1665
esan	-1666
▁(.4	-1667
▁(33	-1668
▁cam	-1669
▁cub	-1670
▁gou	-1671
▁mal	-1672
▁sco	-1673
▁tub	-1674
annah	-1675
rabar	-1676
▁(5.1	-1677
▁dill	-1678
▁real	-1679
▁shav	-1680
▁shel	-1681
▁summ	-1682
▁vegg	-1683
▁fried	-1684
▁juice	-1685
▁garlic	-1686
▁larabar	-1687
▁tortell	-1688
▁goldfish	-1689
▁parmesan	-1690
▁chocolatey	-1691
▁cloverhill	-1692
dew	-1693
iab	-1694
ity	-1695
ong	-1696
▁2)	-1697
▁8"	-1698
▁at	-1699
ican	-1700
ista	-1701
▁18)	-1702
▁cut	-1703
▁(6.8	-1704
▁ciab	-1705
▁mich	-1706
▁part	-1707
▁scon	-1708
▁gouda	-1709
▁grace	-1710
▁plant	-1711
▁richs	-1712
▁shelf	-1713
▁spice	-1714
▁swirl	-1715
▁promis	-1716
▁summer	-1717
▁waffle	-1718
▁toasted	-1719
▁brothers	-1720
▁ciabatta	-1721
▁planters	-1722
▁sunridge	-1723
▁chocolove	-1724
▁vegetable	-1725
27	-1726
be	-1727
ame	-1728
par	-1729
xas	-1730
▁30)	-1731
▁ver	-1732
antry	-1733
▁(3.4	-1734
▁(6.7	-1735
▁curd	-1736
▁home	-1737
▁rain	-1738
▁taco	-1739
▁(5.25	-1740
▁maple	-1741
▁milky	-1742
▁pasta	-1743
▁plate	-1744
▁punch	-1745
▁texas	-1746
▁tonys	-1747
▁golden	-1748
▁panini	-1749
▁pantry	-1750
▁shaved	-1751
▁single	-1752
▁stable	-1753
▁babybel	-1754
▁soymilk	-1755
▁graceful	-1756
▁smoothie	-1757
▁charbroil	-1758
14	-1759
16	-1760
73	-1761
ux	-1762
air	-1763
can	-1764
ely	-1765
rel	-1766
▁bl	-1767
bler	-1768
ozen	-1769
rops	-1770
wder	-1771
▁(40	-1772
▁alo	-1773
▁bob	-1774
▁cuc	-1775
▁fra	-1776
▁pac	-1777
▁two	-1778
house	-1779
▁(3.3	-1780
▁(7.2	-1781
▁colo	-1782
▁dais	-1783
▁mate	-1784
▁melt	-1785
▁rico	-1786
inseng	-1787
▁(1.93	-1788
▁(6.75	-1789
▁based	-1790
▁fiber	-1791
▁liber	-1792
▁mayer	-1793
▁oscar	-1794
▁pecan	-1795
▁quest	-1796
▁frozen	-1797
▁powder	-1798
▁artisan	-1799
▁mexican	-1800
▁snapple	-1801
▁desserts	-1802
▁honeydew	-1803
▁promises	-1804
ago	-1805
ami	-1806
els	-1807
for	-1808
ide	-1809
oma	-1810
▁3"	-1811
▁gl	-1812
▁pr	-1813
asis	-1814
coat	-1815
core	-1816
king	-1817
kist	-1818
▁dor	-1819
▁lip	-1820
▁son	-1821
▁too	-1822
▁wow	-1823
adian	-1824
field	-1825
mbers	-1826
yders	-1827
▁(3.9	-1828
▁200)	-1829
▁belg	-1830
▁fast	-1831
▁hour	-1832
▁pass	-1833
▁pink	-1834
▁pita	-1835
▁rubi	-1836
▁whip	-1837
pbells	-1838
▁(3.75	-1839
▁oasis	-1840
▁petti	-1841
▁silky	-1842
▁assort	-1843
▁hormel	-1844
▁lipton	-1845
▁michel	-1846
▁probar	-1847
▁veggie	-1848
▁barista	-1849
▁doritos	-1850
▁members	-1851
▁snyders	-1852
▁campbells	-1853
▁petticoat	-1854
▁tortellini	-1855
au	-1856
ada	-1857
cot	-1858
isk	-1859
lar	-1860
org	-1861
tta	-1862
uxe	-1863
▁#2	-1864
▁aw	-1865
▁mu	-1866
▁tg	-1867
esto	-1868
food	-1869
tose	-1870
▁dav	-1871
▁frs	-1872
▁ome	-1873
tered	-1874
ustic	-1875
▁(7.3	-1876
▁bark	-1877
▁bree	-1878
▁lite	-1879
▁pear	-1880
▁trad	-1881
▁(1.06	-1882
▁(1.12	-1883
▁(8.25	-1884
▁brisk	-1885
▁cheer	-1886
▁burger	-1887
▁deluxe	-1888
▁father	-1889
▁forest	-1890
▁rustic	-1891
▁chobani	-1892
▁crumble	-1893
▁ginseng	-1894
▁lactose	-1895
▁natures	-1896
▁passion	-1897
▁rubicon	-1898
▁rockview	-1899
▁superfood	-1900
▁assortment	-1901
▁nutritional	-1902
50	-1903
74	-1904
88	-1905
▁u	-1906
002	-1907
cco	-1908
sta	-1909
umb	-1910
utz	-1911
▁#5	-1912
▁6)	-1913
▁85	-1914
▁du	-1915
▁lu	-1916
aked	-1917
gate	-1918
ines	-1919
made	-1920
oche	-1921
rigo	-1922
teen	-1923
umoo	-1924
▁(2.	-1925
▁(21	-1926
▁bet	-1927
▁jon	-1928
▁pod	-1929
▁tan	-1930
▁unc	-1931
▁utz	-1932
ellow	-1933
ilios	-1934
ornia	-1935
umber	-1936
▁(3.6	-1937
▁(6.2	-1938
▁(7.9	-1939
▁clus	-1940
▁cult	-1941
▁fair	-1942
▁kemp	-1943
▁maid	-1944
▁wood	-1945
chilad	-1946
▁(1.48	-1947
▁(1.94	-1948
▁(3.25	-1949
▁(33.8	-1950
▁balan	-1951
▁frigo	-1952
▁naked	-1953
▁puffs	-1954
iltered	-1955
▁breeze	-1956
▁sconza	-1957
▁trumoo	-1958
▁brioche	-1959
▁emilios	-1960
▁stuffed	-1961
▁cucumber	-1962
▁enchilad	-1963
▁powerbar	-1964
▁california	-1965
ca	-1966
ji	-1967
ko	-1968
ml	-1969
ads	-1970
ose	-1971
out	-1972
▁0%	-1973
▁21	-1974
▁ap	-1975
▁az	-1976
acto	-1977
rose	-1978
ther	-1979
vers	-1980
zona	-1981
▁70%	-1982
▁amp	-1983
▁ari	-1984
▁bat	-1985
▁den	-1986
▁div	-1987
▁hyd	-1988
▁kee	-1989
▁rip	-1990
▁rit	-1991
lakes	-1992
lower	-1993
uscan	-1994
▁(.85	-1995
▁acai	-1996
▁chia	-1997
▁flat	-1998
▁meal	-1999
▁mega	-2000
actory	-2001
▁(1.69	-2002
▁(5.75	-2003
▁alban	-2004
▁alpen	-2005
▁bunch	-2006
▁cubes	-2007
▁fashi	-2008
▁bottle	-2009
▁tuscan	-2010
▁arizona	-2011
▁factory	-2012
▁keebler	-2013
▁cheerios	-2014
▁crumbled	-2015
▁alpenrose	-2016
▁applegate	-2017
▁flatbread	-2018
▁cranberries	-2019
▁gingerbread	-2020
10	-2021
dw	-2022
oa	-2023
day	-2024
hon	-2025
lly	-2026
ria	-2027
tes	-2028
▁kr	-2029
bury	-2030
inoa	-2031
ized	-2032
kies	-2033
life	-2034
otic	-2035
ouch	-2036
utch	-2037
▁(.2	-2038
▁fig	-2039
▁ris	-2040
ccoli	-2041
inkle	-2042
mance	-2043
orean	-2044
ppers	-2045
stant	-2046
▁(6.4	-2047
▁(8.1	-2048
▁chex	-2049
▁nugg	-2050
estyle	-2051
▁annie	-2052
▁basil	-2053
▁carro	-2054
▁field	-2055
▁greens	-2056
▁korean	-2057
▁matcha	-2058
▁perfor	-2059
▁quinoa	-2060
▁snacks	-2061
▁bunches	-2062
▁canteen	-2063
▁instant	-2064
▁liberty	-2065
▁albanese	-2066
▁broccoli	-2067
▁starkist	-2068
▁tortilla	-2069
▁performance	-2070
2)	-2071
ps	-2072
001	-2073
als	-2074
dou	-2075
ica	-2076
ips	-2077
pie	-2078
tro	-2079
uis	-2080
▁36	-2081
▁ru	-2082
▁rx	-2083
bite	-2084
ited	-2085
▁(35	-2086
▁1/4	-2087
▁101	-2088
▁102	-2089
▁bir	-2090
▁hom	-2091
▁man	-2092
▁one	-2093
▁rae	-2094
gered	-2095
keley	-2096
nders	-2097
orgia	-2098
usion	-2099
ustin	-2100
▁alba	-2101
▁back	-2102
▁budd	-2103
▁danc	-2104
▁deep	-2105
▁deer	-2106
▁evol	-2107
▁java	-2108
▁kars	-2109
▁less	-2110
▁nect	-2111
ations	-2112
▁(1.58	-2113
▁awake	-2114
▁baker	-2115
▁chews	-2116
▁endan	-2117
▁torta	-2118
▁scobee	-2119
▁dancing	-2120
▁georgia	-2121
▁species	-2122
▁albacore	-2123
▁berkeley	-2124
▁chocolon	-2125
▁clusters	-2126
▁endangered	-2127
59	-2128
ne	-2129
ces	-2130
ett	-2131
ico	-2132
lim	-2133
▁13	-2134
▁4%	-2135
▁55	-2136
▁97	-2137
▁gf	-2138
cade	-2139
high	-2140
rade	-2141
rate	-2142
real	-2143
rets	-2144
tter	-2145
▁(19	-2146
▁(23	-2147
▁(26	-2148
▁ben	-2149
▁bra	-2150
▁cou	-2151
▁eco	-2152
▁log	-2153
▁ses	-2154
▁sou	-2155
heads	-2156
uette	-2157
▁(.78	-2158
▁(8.3	-2159
▁(8.6	-2160
▁bang	-2161
▁gato	-2162
▁link	-2163
▁over	-2164
▁path	-2165
▁reco	-2166
▁snap	-2167
cheese	-2168
flower	-2169
▁(11.1	-2170
▁(15.2	-2171
▁drops	-2172
▁mesqu	-2173
▁bistro	-2174
▁bumble	-2175
▁chunky	-2176
▁donuts	-2177
▁fresko	-2178
▁hannah	-2179
▁salmon	-2180
▁sesame	-2181
▁sweets	-2182
▁wafers	-2183
▁yellow	-2184
▁brisket	-2185
▁uncured	-2186
▁baguette	-2187
▁culinart	-2188
▁farmland	-2189
▁gatorade	-2190
▁mesquite	-2191
▁hillshire	-2192
▁cheeseheads	-2193
26	-2194
30	-2195
ax	-2196
di	-2197
mo	-2198
ng	-2199
ya	-2200
zy	-2201
004	-2202
cla	-2203
coo	-2204
duc	-2205
ean	-2206
ges	-2207
hen	-2208
mal	-2209
mos	-2210
ner	-2211
ome	-2212
sin	-2213
▁11	-2214
▁96	-2215
▁an	-2216
acha	-2217
aire	-2218
cent	-2219
ence	-2220
good	-2221
inas	-2222
ness	-2223
west	-2224
▁dec	-2225
▁emp	-2226
▁ger	-2227
▁inf	-2228
▁key	-2229
▁mad	-2230
▁nib	-2231
▁nos	-2232
▁pub	-2233
▁vel	-2234
▁ven	-2235
▁who	-2236
angle	-2237
ition	-2238
olean	-2239
thday	-2240
ution	-2241
▁(.28	-2242
▁(6.9	-2243
▁(7.4	-2244
▁(7.6	-2245
▁(7.8	-2246
▁body	-2247
▁gems	-2248
▁hand	-2249
▁port	-2250
▁rica	-2251
▁theo	-2252
▁(1.83	-2253
▁(2.29	-2254
▁bliss	-2255
▁combo	-2256
▁krisp	-2257
▁pound	-2258
▁sport	-2259
▁(1.125	-2260
▁barrel	-2261
▁carton	-2262
▁colomb	-2263
▁golean	-2264
▁ground	-2265
▁produc	-2266
▁season	-2267
▁sonoma	-2268
▁unreal	-2269
▁balance	-2270
▁donaire	-2271
▁justins	-2272
▁supreme	-2273
▁whipped	-2274
▁birthday	-2275
▁grandmas	-2276
▁seasoned	-2277
▁triangle	-2278
▁fashioned	-2279
▁chocolonely	-2280
33	-2281
53	-2282
sn	-2283
zo	-2284
ado	-2285
ans	-2286
ppy	-2287
▁5"	-2288
▁ag	-2289
adow	-2290
arth	-2291
aste	-2292
gers	-2293
illy	-2294
imal	-2295
ngth	-2296
▁(52	-2297
▁ang	-2298
▁bor	-2299
▁lil	-2300
▁mag	-2301
▁slb	-2302
aribo	-2303
astle	-2304
dough	-2305
henos	-2306
inela	-2307
inson	-2308
▁(9.6	-2309
▁alta	-2310
▁brie	-2311
▁bulk	-2312
▁cuis	-2313
▁lact	-2314
▁open	-2315
▁oven	-2316
▁road	-2317
adilla	-2318
lesome	-2319
▁(12.5	-2320
▁(18.5	-2321
▁cakes	-2322
▁chive	-2323
▁costa	-2324
▁crumb	-2325
▁etais	-2326
▁lindt	-2327
▁macro	-2328
▁salty	-2329
▁arcade	-2330
▁barbar	-2331
▁castle	-2332
▁easter	-2333
▁haribo	-2334
▁marble	-2335
▁market	-2336
▁meadow	-2337
▁nectar	-2338
▁nonfat	-2339
▁pieces	-2340
▁strong	-2341
centrate	-2342
▁athenos	-2343
▁cuisine	-2344
▁fairlife	-2345
▁madegood	-2346
▁marinela	-2347
▁recovery	-2348
▁southern	-2349
▁strength	-2350
▁creations	-2351
▁sourdough	-2352
▁wholesome	-2353
▁concentrate	-2354
23	-2355
36	-2356
48	-2357
70	-2358
99	-2359
do	-2360
act	-2361
ial	-2362
let	-2363
lip	-2364
ors	-2365
ras	-2366
▁76	-2367
▁is	-2368
ando	-2369
anns	-2370
guel	-2371
igis	-2372
inds	-2373
▁chr	-2374
▁fun	-2375
▁hud	-2376
▁kno	-2377
▁las	-2378
▁moj	-2379
▁noo	-2380
▁own	-2381
▁pap	-2382
▁ref	-2383
▁sri	-2384
▁wis	-2385
acker	-2386
aline	-2387
idine	-2388
manns	-2389
ricot	-2390
ttuce	-2391
▁(.39	-2392
▁(.74	-2393
▁cher	-2394
▁ever	-2395
▁hick	-2396
▁jose	-2397
▁kens	-2398
▁lion	-2399
▁main	-2400
▁mart	-2401
▁runa	-2402
▁sara	-2403
▁snow	-2404
▁taza	-2405
▁wawa	-2406
▁whey	-2407
mallow	-2408
ridges	-2409
▁(1.27	-2410
▁(1.38	-2411
▁carol	-2412
▁crust	-2413
▁dutch	-2414
▁frost	-2415
▁gigis	-2416
▁nemos	-2417
▁pesto	-2418
▁rings	-2419
▁rxbar	-2420
▁fusion	-2421
▁hudson	-2422
▁lehigh	-2423
▁medley	-2424
▁miguel	-2425
▁strand	-2426
▁wiscon	-2427
▁apricot	-2428
▁belgian	-2429
▁cracked	-2430
▁hickory	-2431
▁lettuce	-2432
▁nuggets	-2433
▁ricotta	-2434
▁snacker	-2435
▁stinger	-2436
▁unidine	-2437
▁appleton	-2438
▁barbaras	-2439
▁caffeine	-2440
▁truffles	-2441
▁cheesewich	-2442
20	-2443
29	-2444
31	-2445
96	-2446
ka	-2447
ph	-2448
are	-2449
cip	-2450
ile	-2451
jon	-2452
kie	-2453
lix	-2454
mor	-2455
oks	-2456
ray	-2457
rst	-2458
ugo	-2459
▁05	-2460
▁65	-2461
▁7"	-2462
▁99	-2463
▁lc	-2464
alet	-2465
ific	-2466
mans	-2467
rive	-2468
▁day	-2469
▁fav	-2470
▁hay	-2471
▁ind	-2472
▁you	-2473
pping	-2474
racha	-2475
▁bell	-2476
▁chee	-2477
▁core	-2478
▁malt	-2479
▁moms	-2480
▁muen	-2481
▁nugo	-2482
▁plus	-2483
▁ques	-2484
▁sigg	-2485
▁stri	-2486
▁tart	-2487
▁thro	-2488
▁xmas	-2489
abella	-2490
▁(14.5	-2491
▁(9.25	-2492
▁angus	-2493
▁bloss	-2494
▁boost	-2495
▁dijon	-2496
▁dream	-2497
▁every	-2498
▁first	-2499
▁fries	-2500
▁large	-2501
▁pring	-2502
▁rolls	-2503
itional	-2504
▁(11.25	-2505
▁animal	-2506
▁borden	-2507
▁chalet	-2508
▁divine	-2509
▁german	-2510
▁lovers	-2511
▁publix	-2512
▁berries	-2513
▁edition	-2514
▁grahams	-2515
▁platter	-2516
▁premier	-2517
▁shortys	-2518
▁canadian	-2519
▁cherries	-2520
▁muenster	-2521
▁pringles	-2522
▁sriracha	-2523
▁enchilada	-2524
▁wisconsin	-2525
▁marshmallow	-2526
51	-2527
78	-2528
az	-2529
bi	-2530
dt	-2531
ox	-2532
ddy	-2533
ior	-2534
lex	-2535
ora	-2536
ori	-2537
per	-2538
rey	-2539
tus	-2540
▁3)	-2541
▁98	-2542
▁by	-2543
▁vi	-2544
agus	-2545
anga	-2546
arri	-2547
itas	-2548
leaf	-2549
line	-2550
rizz	-2551
thur	-2552
▁25)	-2553
▁311	-2554
▁aug	-2555
▁cas	-2556
▁heb	-2557
▁joe	-2558
▁ole	-2559
▁pur	-2560
▁run	-2561
amous	-2562
ation	-2563
ction	-2564
imich	-2565
stone	-2566
thing	-2567
▁(.88	-2568
▁(3.7	-2569
▁(7.1	-2570
▁(9.3	-2571
▁bake	-2572
▁base	-2573
▁bits	-2574
▁carb	-2575
▁comb	-2576
▁dena	-2577
▁flip	-2578
▁lava	-2579
arrior	-2580
binson	-2581
biotic	-2582
inated	-2583
orites	-2584
▁(2.82	-2585
▁aspar	-2586
▁bundt	-2587
▁chefs	-2588
▁infus	-2589
▁links	-2590
▁lotus	-2591
▁monte	-2592
▁oatly	-2593
▁rinds	-2594
▁serve	-2595
▁sunda	-2596
▁tates	-2597
▁train	-2598
▁(1.875	-2599
▁better	-2600
▁brooks	-2601
▁christ	-2602
▁hayden	-2603
▁honest	-2604
▁united	-2605
sonville	-2606
▁blossom	-2607
▁cashews	-2608
▁chimich	-2609
▁pacific	-2610
▁packets	-2611
▁sanders	-2612
▁topping	-2613
▁warrior	-2614
▁augustin	-2615
▁krispies	-2616
▁asparagus	-2617
▁favorites	-2618
▁homestyle	-2619
▁chimichanga	-2620
▁traditional	-2621
38	-2622
71	-2623
76	-2624
go	-2625
ho	-2626
ni	-2627
▁'	-2628
▁-	-2629
ara	-2630
ata	-2631
bag	-2632
bla	-2633
een	-2634
iji	-2635
ird	-2636
ire	-2637
ony	-2638
oos	-2639
tts	-2640
ves	-2641
via	-2642
▁02	-2643
▁10	-2644
▁14	-2645
▁19	-2646
▁8)	-2647
▁ko	-2648
ator	-2649
cipe	-2650
eses	-2651
free	-2652
lait	-2653
maid	-2654
piec	-2655
usse	-2656
▁10)	-2657
▁400	-2658
▁alp	-2659
▁col	-2660
▁mak	-2661
▁mam	-2662
▁oil	-2663
▁pik	-2664
▁pri	-2665
▁scr	-2666
▁sel	-2667
▁sod	-2668
▁tot	-2669
▁wat	-2670
▁yer	-2671
▁yop	-2672
black	-2673
errys	-2674
toria	-2675
▁(.35	-2676
▁(.71	-2677
▁(.84	-2678
▁(750	-2679
▁(8.2	-2680
▁(9.2	-2681
▁arla	-2682
▁bleu	-2683
▁bold	-2684
▁brit	-2685
▁buzz	-2686
▁cass	-2687
▁dail	-2688
▁flax	-2689
▁grab	-2690
▁joes	-2691
▁mayo	-2692
▁orch	-2693
▁quik	-2694
▁shoc	-2695
▁slim	-2696
▁soda	-2697
▁very	-2698
▁wave	-2699
▁zone	-2700
crunch	-2701
esquik	-2702
▁adren	-2703
▁brand	-2704
▁crazy	-2705
▁decaf	-2706
▁dried	-2707
▁grass	-2708
▁meiji	-2709
▁munch	-2710
▁pouch	-2711
▁revol	-2712
▁salsa	-2713
▁tangy	-2714
▁(2.125	-2715
▁batter	-2716
▁corned	-2717
▁famous	-2718
▁jerrys	-2719
▁mousse	-2720
▁reeses	-2721
▁savory	-2722
▁simple	-2723
▁square	-2724
national	-2725
▁bridges	-2726
▁cleaner	-2727
▁cooking	-2728
▁hydrive	-2729
▁lactaid	-2730
▁muffins	-2731
▁nesquik	-2732
▁newmans	-2733
▁yoplait	-2734
▁meatball	-2735
▁potatoes	-2736
▁questbar	-2737
▁vittoria	-2738
▁brookside	-2739
▁sunflower	-2740
▁adrenaline	-2741
▁chocolates	-2742
▁everything	-2743
▁grapefruit	-2744
▁johnsonville	-2745
▁international	-2746
32	-2747
72	-2748
iz	-2749
ja	-2750
ma	-2751
zi	-2752
ced	-2753
mar	-2754
tom	-2755
▁01	-2756
▁31	-2757
▁ah	-2758
▁av	-2759
▁fo	-2760
▁hu	-2761
▁hy	-2762
▁xx	-2763
agen	-2764
alla	-2765
erad	-2766
gain	-2767
iago	-2768
ills	-2769
inci	-2770
iter	-2771
ouff	-2772
ures	-2773
▁201	-2774
▁dry	-2775
▁fin	-2776
▁glo	-2777
▁goo	-2778
▁haw	-2779
▁keg	-2780
▁mct	-2781
▁met	-2782
▁ros	-2783
▁tal	-2784
▁top	-2785
▁unf	-2786
ables	-2787
assau	-2788
attle	-2789
chips	-2790
erson	-2791
grand	-2792
peach	-2793
shake	-2794
ziers	-2795
▁(.98	-2796
▁aged	-2797
▁bour	-2798
▁boys	-2799
▁chai	-2800
▁dips	-2801
▁dish	-2802
▁dunk	-2803
▁fare	-2804
▁groc	-2805
▁kite	-2806
▁mcar	-2807
▁mojo	-2808
▁ritz	-2809
▁roas	-2810
▁true	-2811
▁twix	-2812
loween	-2813
▁(.875	-2814
▁(13.7	-2815
▁(2.65	-2816
▁(25.6	-2817
▁blood	-2818
▁bobos	-2819
▁build	-2820
▁calle	-2821
▁drizz	-2822
▁enten	-2823
▁frslb	-2824
▁giant	-2825
▁hello	-2826
▁mikes	-2827
▁noosa	-2828
▁paper	-2829
▁slice	-2830
▁spray	-2831
▁stony	-2832
▁venom	-2833
▁wings	-2834
▁yerba	-2835
ouffers	-2836
▁alpine	-2837
▁asiago	-2838
▁combos	-2839
▁daisys	-2840
▁nassau	-2841
▁omelet	-2842
▁orgain	-2843
▁packet	-2844
▁runner	-2845
▁siggis	-2846
▁davinci	-2847
▁england	-2848
▁pancake	-2849
▁seattle	-2850
▁graziers	-2851
▁mcarthur	-2852
▁popchips	-2853
▁halloween	-2854
▁milkshake	-2855
▁nutrition	-2856
▁probiotic	-2857
▁producers	-2858
▁stouffers	-2859
▁blackberry	-2860
▁entenmanns	-2861
▁michelinas	-2862
▁quesadilla	-2863
▁revolution	-2864
▁stonyfield	-2865
▁unfiltered	-2866
▁wheatberry	-2867
▁frappuccino	-2868
39	-2869
52	-2870
56	-2871
58	-2872
89	-2873
ht	-2874
hu	-2875
vo	-2876
zs	-2877
atw	-2878
bra	-2879
com	-2880
dar	-2881
ela	-2882
era	-2883
fro	-2884
gen	-2885
gle	-2886
gon	-2887
ila	-2888
min	-2889
oon	-2890
umi	-2891
uro	-2892
uru	-2893
vee	-2894
yok	-2895
▁04	-2896
▁29	-2897
▁4)	-2898
▁71	-2899
▁fu	-2900
▁ir	-2901
▁jb	-2902
▁kn	-2903
▁oh	-2904
▁ow	-2905
▁pb	-2906
▁ph	-2907
▁rt	-2908
▁we	-2909
aven	-2910
cess	-2911
chew	-2912
iman	-2913
itch	-2914
less	-2915
ored	-2916
quid	-2917
time	-2918
wood	-2919
▁#14	-2920
▁(70	-2921
▁500	-2922
▁bol	-2923
▁bus	-2924
▁dol	-2925
▁fty	-2926
▁gar	-2927
▁oak	-2928
▁sch	-2929
▁sky	-2930
▁sys	-2931
▁uht	-2932
▁vic	-2933
▁win	-2934
▁won	-2935
▁wor	-2936
arter	-2937
berts	-2938
choco	-2939
dance	-2940
grain	-2941
honey	-2942
night	-2943
ocado	-2944
stick	-2945
ussel	-2946
yokos	-2947
▁(.53	-2948
▁(7.7	-2949
▁(9.1	-2950
▁1883	-2951
▁ahoy	-2952
▁barn	-2953
▁carm	-2954
▁chug	-2955
▁dazs	-2956
▁guru	-2957
▁mill	-2958
▁ones	-2959
▁pick	-2960
▁rise	-2961
▁soup	-2962
▁sunr	-2963
▁twis	-2964
▁velv	-2965
▁west	-2966
▁zest	-2967
▁zzzm	-2968
▁zzzp	-2969
cooked	-2970
▁(1.24	-2971
▁(10.6	-2972
▁(10.8	-2973
▁(9.75	-2974
▁baron	-2975
▁daily	-2976
▁diced	-2977
▁glass	-2978
▁happy	-2979
▁hawai	-2980
▁lakes	-2981
▁marie	-2982
▁marin	-2983
▁niman	-2984
▁omega	-2985
▁pills	-2986
▁rishi	-2987
▁rosen	-2988
▁scram	-2989
▁sheep	-2990
▁twist	-2991
▁ultim	-2992
licious	-2993
▁(2.625	-2994
▁apples	-2995
▁cougar	-2996
▁haagen	-2997
▁heaven	-2998
▁honeyb	-2999
▁liquid	-3000
▁petite	-3001
▁planet	-3002
▁winter	-3003
▁avocado	-3004
▁carrots	-3005
▁chickpe	-3006
▁chopped	-3007
▁grocery	-3008
▁miyokos	-3009
▁orchard	-3010
▁parmela	-3011
▁partake	-3012
▁tenders	-3013
▁waffles	-3014
chocolate	-3015
▁caramels	-3016
▁filtered	-3017
▁flavored	-3018
▁munchies	-3019
▁northern	-3020
▁pureleaf	-3021
▁roasters	-3022
▁cafection	-3023
▁moondance	-3024
▁naturebox	-3025
▁pillsbury	-3026
▁caffeinated	-3027
28	-3028
34	-3029
41	-3030
80	-3031
84	-3032
ks	-3033
we	-3034
wh	-3035
yn	-3036
003	-3037
026	-3038
bow	-3039
cel	-3040
cey	-3041
esa	-3042
hab	-3043
isc	-3044
lia	-3045
lit	-3046
ppe	-3047
rib	-3048
ubb	-3049
uds	-3050
ugu	-3051
▁06	-3052
▁72	-3053
▁79	-3054
▁9"	-3055
▁cp	-3056
▁ze	-3057
etto	-3058
haus	-3059
ible	-3060
inez	-3061
ison	-3062
laby	-3063
mont	-3064
pers	-3065
rimp	-3066
rizo	-3067
stic	-3068
tern	-3069
utin	-3070
▁#45	-3071
▁(3.	-3072
▁(36	-3073
▁(4.	-3074
▁905	-3075
▁907	-3076
▁cla	-3077
▁eld	-3078
▁ele	-3079
▁ell	-3080
▁ent	-3081
▁foc	-3082
▁gal	-3083
▁gam	-3084
▁hav	-3085
▁hip	-3086
▁jun	-3087
▁kid	-3088
▁kro	-3089
▁odw	-3090
▁res	-3091
▁roy	-3092
▁sec	-3093
▁sur	-3094
adise	-3095
avish	-3096
chers	-3097
clair	-3098
cream	-3099
lemon	-3100
oplex	-3101
pared	-3102
▁(2.9	-3103
▁bomb	-3104
▁boun	-3105
▁casc	-3106
▁chic	-3107
▁choc	-3108
▁cobb	-3109
▁euro	-3110
▁full	-3111
▁kale	-3112
▁king	-3113
▁kize	-3114
▁know	-3115
▁load	-3116
▁loaf	-3117
▁pist	-3118
▁russ	-3119
▁semi	-3120
▁shen	-3121
▁snax	-3122
▁viva	-3123
▁zing	-3124
▁zzzk	-3125
andoah	-3126
blacks	-3127
gerine	-3128
lancey	-3129
vender	-3130
▁(1.05	-3131
▁(1.62	-3132
▁(8.45	-3133
▁braid	-3134
▁burst	-3135
▁cheez	-3136
▁daisy	-3137
▁guava	-3138
▁lucys	-3139
▁melon	-3140
▁miami	-3141
▁milan	-3142
▁paste	-3143
▁prime	-3144
▁quick	-3145
▁rehab	-3146
▁split	-3147
▁stone	-3148
▁total	-3149
▁treat	-3150
▁zzzro	-3151
▁(10.25	-3152
▁carrot	-3153
▁chunks	-3154
▁eclair	-3155
▁fritos	-3156
▁gamesa	-3157
▁google	-3158
▁grains	-3159
▁herbal	-3160
▁knotts	-3161
▁kroger	-3162
▁lindor	-3163
▁nibmor	-3164
▁panera	-3165
▁pastry	-3166
▁ritter	-3167
▁routin	-3168
▁rutter	-3169
▁squash	-3170
▁twists	-3171
▁velvet	-3172
▁winkle	-3173
▁breaded	-3174
▁brittle	-3175
▁brussel	-3176
▁infused	-3177
▁milkman	-3178
▁myoplex	-3179
▁odwalla	-3180
▁pistach	-3181
▁plastic	-3182
▁process	-3183
▁quarter	-3184
▁talking	-3185
▁wallaby	-3186
▁anderson	-3187
▁builders	-3188
▁coolhaus	-3189
▁delancey	-3190
▁hawaiian	-3191
▁heavenly	-3192
▁homefree	-3193
▁homemade	-3194
▁martinez	-3195
▁mctavish	-3196
▁paradise	-3197
▁prepared	-3198
▁savannah	-3199
▁scramble	-3200
▁seasonal	-3201
▁ultimate	-3202
▁cascadian	-3203
▁christmas	-3204
▁honeybush	-3205
▁southwest	-3206
▁tangerine	-3207
▁shenandoah	-3208
▁seedlicious	-3209
▁strawberries	-3210
▁winkleblacks	-3211
37	-3212
43	-3213
49	-3214
86	-3215
gu	-3216
xt	-3217
yi	-3218
▁q	-3219
ald	-3220
bon	-3221
hot	-3222
imo	-3223
iti	-3224
las	-3225
ock	-3226
pla	-3227
pod	-3228
vil	-3229
zer	-3230
▁2"	-3231
▁83	-3232
▁bf	-3233
1008	-3234
agna	-3235
ally	-3236
arti	-3237
bbie	-3238
bern	-3239
cond	-3240
eris	-3241
esta	-3242
etti	-3243
hale	-3244
plus	-3245
rami	-3246
urst	-3247
zone	-3248
▁#09	-3249
▁(59	-3250
▁1/3	-3251
▁15)	-3252
▁40)	-3253
▁60)	-3254
▁add	-3255
▁ama	-3256
▁ash	-3257
▁bao	-3258
▁bhu	-3259
▁bou	-3260
▁boy	-3261
▁det	-3262
▁equ	-3263
▁est	-3264
▁exp	-3265
▁fer	-3266
▁lif	-3267
▁mio	-3268
▁nek	-3269
▁row	-3270
▁rue	-3271
▁spr	-3272
▁ter	-3273
▁tig	-3274
▁xyi	-3275
▁zoa	-3276
ackim	-3277
bazon	-3278
chess	-3279
crisp	-3280
dwick	-3281
ffrey	-3282
frost	-3283
itage	-3284
orado	-3285
ribut	-3286
ulder	-3287
▁(.32	-3288
▁(.46	-3289
▁(.81	-3290
▁(128	-3291
▁500)	-3292
▁amos	-3293
▁busy	-3294
▁cone	-3295
▁cook	-3296
▁dist	-3297
▁fill	-3298
▁fire	-3299
▁fran	-3300
▁girl	-3301
▁jean	-3302
▁magn	-3303
▁mati	-3304
▁miss	-3305
▁next	-3306
▁pale	-3307
▁patt	-3308
▁pops	-3309
▁rose	-3310
▁rush	-3311
▁shop	-3312
▁snak	-3313
▁torn	-3314
▁unna	-3315
▁ziti	-3316
urized	-3317
▁(1.13	-3318
▁(1.55	-3319
▁(11.2	-3320
▁(2.11	-3321
▁(2.76	-3322
▁(7.94	-3323
▁betty	-3324
▁block	-3325
▁earth	-3326
▁elect	-3327
▁knows	-3328
▁lilys	-3329
▁party	-3330
▁pocky	-3331
▁round	-3332
▁seeds	-3333
▁stars	-3334
▁stash	-3335
▁sunny	-3336
▁tarts	-3337
▁debbie	-3338
▁entree	-3339
▁frappe	-3340
▁recipe	-3341
▁resers	-3342
▁rising	-3343
▁sahale	-3344
▁seeded	-3345
▁shrimp	-3346
▁strips	-3347
▁sundae	-3348
▁treats	-3349
▁weight	-3350
ackimals	-3351
▁boulder	-3352
▁bourbon	-3353
▁calzone	-3354
▁chicago	-3355
▁chorizo	-3356
▁duchess	-3357
▁farmers	-3358
▁havarti	-3359
▁joffrey	-3360
▁lasagna	-3361
▁ludwick	-3362
▁mediter	-3363
▁poppers	-3364
▁rainbow	-3365
▁secrets	-3366
▁stacker	-3367
▁sunrise	-3368
▁traders	-3369
▁vermont	-3370
▁walnuts	-3371
▁wrapped	-3372
▁xyience	-3373
▁biscuits	-3374
▁carolina	-3375
▁cheezits	-3376
▁chocopod	-3377
▁colombia	-3378
▁eldorado	-3379
▁goodness	-3380
▁heritage	-3381
▁lavender	-3382
▁macaroon	-3383
▁organics	-3384
▁pastrami	-3385
▁sambazon	-3386
▁zzzgrand	-3387
▁butternut	-3388
▁distribut	-3389
▁callenders	-3390
▁sandwiches	-3391
▁snackimals	-3392
▁steakhouse	-3393
▁pasteurized	-3394
-3	-3395
21	-3396
35	-3397
40	-3398
45	-3399
47	-3400
67	-3401
77	-3402
91	-3403
hl	-3404
sm	-3405
tw	-3406
uf	-3407
005	-3408
008	-3409
011	-3410
015	-3411
041	-3412
aro	-3413
bbl	-3414
inz	-3415
ito	-3416
olo	-3417
ont	-3418
orm	-3419
qui	-3420
ran	-3421
vre	-3422
▁(.	-3423
▁25	-3424
▁48	-3425
▁64	-3426
▁er	-3427
▁mt	-3428
▁pl	-3429
▁ur	-3430
▁ww	-3431
alat	-3432
anda	-3433
comb	-3434
eila	-3435
elly	-3436
etos	-3437
host	-3438
ioso	-3439
irty	-3440
kins	-3441
lani	-3442
lato	-3443
lera	-3444
mill	-3445
olis	-3446
ores	-3447
rian	-3448
twix	-3449
tzer	-3450
uddy	-3451
▁#12	-3452
▁(29	-3453
▁(44	-3454
▁(46	-3455
▁1/2	-3456
▁303	-3457
▁509	-3458
▁588	-3459
▁806	-3460
▁858	-3461
▁act	-3462
▁bab	-3463
▁bub	-3464
▁bug	-3465
▁cap	-3466
▁cel	-3467
▁dai	-3468
▁dha	-3469
▁ess	-3470
▁mas	-3471
▁pee	-3472
▁pep	-3473
▁pos	-3474
▁rtg	-3475
▁san	-3476
▁sue	-3477
▁tin	-3478
▁wil	-3479
▁yam	-3480
aroun	-3481
burst	-3482
chmar	-3483
dairy	-3484
erole	-3485
ettis	-3486
gular	-3487
ology	-3488
rette	-3489
serad	-3490
spire	-3491
stock	-3492
under	-3493
unity	-3494
urish	-3495
▁(.38	-3496
▁(.83	-3497
▁120)	-3498
▁1573	-3499
▁alou	-3500
▁aunt	-3501
▁cola	-3502
▁cree	-3503
▁dolc	-3504
▁dole	-3505
▁foam	-3506
▁font	-3507
▁fort	-3508
▁gala	-3509
▁gehl	-3510
▁glow	-3511
▁hall	-3512
▁hero	-3513
▁kick	-3514
▁lake	-3515
▁nana	-3516
▁side	-3517
▁tgif	-3518
▁this	-3519
▁wing	-3520
▁wise	-3521
▁work	-3522
▁zzzc	-3523
▁zzzf	-3524
▁zzzt	-3525
ifesto	-3526
ioioso	-3527
lasses	-3528
verage	-3529
▁(1.15	-3530
▁(1.16	-3531
▁(11.8	-3532
▁(12.8	-3533
▁(15.8	-3534
▁(2.01	-3535
▁(2.05	-3536
▁(2.46	-3537
▁(6.35	-3538
▁added	-3539
▁aloha	-3540
▁belly	-3541
▁chile	-3542
▁coach	-3543
▁curds	-3544
▁daves	-3545
▁dirty	-3546
▁dolly	-3547
▁ellis	-3548
▁flame	-3549
▁flour	-3550
▁ghost	-3551
▁heinz	-3552
▁jacks	-3553
▁jelly	-3554
▁krets	-3555
▁letti	-3556
▁lives	-3557
▁muddy	-3558
▁multi	-3559
▁nancy	-3560
▁nekot	-3561
▁paleo	-3562
▁panda	-3563
▁patty	-3564
▁rowdy	-3565
▁saves	-3566
▁smoke	-3567
▁start	-3568
▁steaz	-3569
▁touch	-3570
▁twins	-3571
▁verve	-3572
abellas	-3573
▁(10.75	-3574
▁bagels	-3575
▁bounce	-3576
▁bright	-3577
▁buddys	-3578
▁edible	-3579
▁fields	-3580
▁gelato	-3581
▁joseph	-3582
▁junior	-3583
▁karoun	-3584
▁milano	-3585
▁onions	-3586
▁peachy	-3587
▁second	-3588
▁series	-3589
▁sheila	-3590
▁sodium	-3591
▁soules	-3592
▁telera	-3593
▁throat	-3594
▁tigers	-3595
▁uptime	-3596
▁wholey	-3597
▁wonder	-3598
seradish	-3599
▁biscoff	-3600
▁colombe	-3601
▁culture	-3602
▁element	-3603
▁extreme	-3604
▁frother	-3605
▁galbani	-3606
▁madison	-3607
▁nourish	-3608
▁patties	-3609
▁regular	-3610
▁roberts	-3611
▁singles	-3612
▁snowman	-3613
▁alouette	-3614
▁beverage	-3615
▁cultured	-3616
▁marinara	-3617
▁molasses	-3618
▁robinson	-3619
▁snickers	-3620
▁casserole	-3621
▁isabellas	-3622
▁lettieris	-3623
▁manifesto	-3624
▁meatballs	-3625
▁perfectly	-3626
▁woodstock	-3627
▁belgioioso	-3628
▁enchiladas	-3629
▁honeycrisp	-3630
▁kretschmar	-3631
▁vegetables	-3632
▁blueberries	-3633
▁horseradish	-3634
▁powercrunch	-3635
▁passionfruit	-3636
▁cheeseburgers	-3637
(7	-3638
/7	-3639
22	-3640
66	-3641
68	-3642
97	-3643
aw	-3644
js	-3645
kb	-3646
rx	-3647
034	-3648
120	-3649
acc	-3650
aka	-3651
dam	-3652
iki	-3653
irs	-3654
itt	-3655
lli	-3656
med	-3657
mys	-3658
oke	-3659
ons	-3660
pic	-3661
pts	-3662
ume	-3663
vin	-3664
wet	-3665
wra	-3666
▁2-	-3667
▁74	-3668
▁87	-3669
▁af	-3670
▁mr	-3671
▁ms	-3672
▁rh	-3673
▁uk	-3674
▁ye	-3675
acqu	-3676
alte	-3677
apes	-3678
ated	-3679
aves	-3680
bert	-3681
blue	-3682
cker	-3683
eath	-3684
elow	-3685
fres	-3686
ghty	-3687
iano	-3688
ikos	-3689
iled	-3690
itro	-3691
mary	-3692
over	-3693
part	-3694
rave	-3695
roly	-3696
sure	-3697
ucky	-3698
ushi	-3699
vari	-3700
vens	-3701
vita	-3702
▁(27	-3703
▁(31	-3704
▁(7.	-3705
▁42)	-3706
▁600	-3707
▁dew	-3708
▁dkb	-3709
▁fed	-3710
▁fre	-3711
▁imp	-3712
▁inn	-3713
▁kim	-3714
▁kos	-3715
▁mor	-3716
▁ool	-3717
▁pam	-3718
▁pip	-3719
▁por	-3720
▁ray	-3721
▁tro	-3722
▁tru	-3723
▁xox	-3724
▁xxl	-3725
aldor	-3726
anada	-3727
anyon	-3728
cakes	-3729
cepts	-3730
cover	-3731
darra	-3732
eline	-3733
inaig	-3734
indys	-3735
mette	-3736
natur	-3737
riger	-3738
snick	-3739
stirs	-3740
style	-3741
tense	-3742
▁(.25	-3743
▁(.42	-3744
▁(.77	-3745
▁(100	-3746
▁(9.4	-3747
▁(9.8	-3748
▁125)	-3749
▁boom	-3750
▁buit	-3751
▁cave	-3752
▁cond	-3753
▁craf	-3754
▁dogs	-3755
▁exch	-3756
▁fuze	-3757
▁goya	-3758
▁halo	-3759
▁hash	-3760
▁hint	-3761
▁hubb	-3762
▁humm	-3763
▁kiss	-3764
▁like	-3765
▁mani	-3766
▁mist	-3767
▁mont	-3768
▁moos	-3769
▁mush	-3770
▁numi	-3771
▁pame	-3772
▁patr	-3773
▁pres	-3774
▁ring	-3775
▁ruiz	-3776
▁sant	-3777
▁sobe	-3778
▁stix	-3779
▁surf	-3780
▁taos	-3781
▁vita	-3782
▁yogi	-3783
▁zzzg	-3784
▁zzzs	-3785
acquel	-3786
erevil	-3787
estern	-3788
ickson	-3789
ington	-3790
leshot	-3791
master	-3792
ranean	-3793
torian	-3794
wether	-3795
▁(1.08	-3796
▁(1.09	-3797
▁(1.52	-3798
▁(1.72	-3799
▁(10.2	-3800
▁(12.7	-3801
▁(2.64	-3802
▁(3.17	-3803
▁(3.53	-3804
▁(8.75	-3805
▁alani	-3806
▁amber	-3807
▁amino	-3808
▁belle	-3809
▁brill	-3810
▁cause	-3811
▁centr	-3812
▁creek	-3813
▁death	-3814
▁dietz	-3815
▁draft	-3816
▁emmys	-3817
▁equal	-3818
▁flipz	-3819
▁genoa	-3820
▁grove	-3821
▁halls	-3822
▁irish	-3823
▁kates	-3824
▁krave	-3825
▁lilly	-3826
▁minor	-3827
▁nitro	-3828
▁nonni	-3829
▁ruger	-3830
▁sheet	-3831
▁skout	-3832
▁sushi	-3833
▁trade	-3834
▁twice	-3835
▁under	-3836
▁vital	-3837
▁willa	-3838
▁works	-3839
bergers	-3840
genline	-3841
ustries	-3842
wrapped	-3843
▁annies	-3844
▁baldor	-3845
▁canyon	-3846
▁cindys	-3847
▁cooper	-3848
▁copper	-3849
▁denver	-3850
▁depart	-3851
▁ensure	-3852
▁fitjoy	-3853
▁island	-3854
▁mighty	-3855
▁oolong	-3856
▁peeled	-3857
▁popped	-3858
▁posada	-3859
▁ricola	-3860
▁ripple	-3861
▁ukrops	-3862
▁vinaig	-3863
▁yamato	-3864
▁allergy	-3865
▁bigelow	-3866
▁bodykey	-3867
▁buitoni	-3868
▁cheetos	-3869
▁chocola	-3870
▁cobbler	-3871
▁compact	-3872
▁cravens	-3873
▁dessert	-3874
▁drizzle	-3875
▁figures	-3876
▁hubbard	-3877
▁intense	-3878
▁jacquel	-3879
▁lavazza	-3880
▁pamelas	-3881
▁raybern	-3882
▁russell	-3883
▁seltzer	-3884
▁thunder	-3885
▁calories	-3886
▁chickpea	-3887
▁concepts	-3888
▁creamery	-3889
▁cupcakes	-3890
▁dolcetto	-3891
▁empanada	-3892
▁erickson	-3893
▁exchange	-3894
▁frosting	-3895
▁goodwest	-3896
▁jimmybar	-3897
▁kitchens	-3898
▁rosemary	-3899
▁electroly	-3900
▁foodstirs	-3901
▁honeycomb	-3902
▁moondarra	-3903
▁nectarine	-3904
▁pistachio	-3905
▁scrambled	-3906
▁thinsters	-3907
▁victorian	-3908
▁bellwether	-3909
▁bergenline	-3910
▁department	-3911
▁industries	-3912
▁lesserevil	-3913
▁undercover	-3914
▁willamette	-3915
▁jacquelines	-3916
▁vinaigrette	-3917
▁distributors	-3918
▁rosenbergers	-3919
▁mediterranean	-3920
",	-3921
/3	-3922
15	-3923
17	-3924
42	-3925
46	-3926
94	-3927
cu	-3928
du	-3929
kk	-3930
mg	-3931
nk	-3932
rd	-3933
vi	-3934
wi	-3935
009	-3936
010	-3937
014	-3938
018	-3939
030	-3940
052	-3941
122	-3942
anu	-3943
asm	-3944
bet	-3945
cal	-3946
fre	-3947
iak	-3948
ien	-3949
irg	-3950
iso	-3951
jas	-3952
ldt	-3953
ney	-3954
oib	-3955
ola	-3956
oot	-3957
rat	-3958
ril	-3959
rim	-3960
tea	-3961
tem	-3962
udi	-3963
ute	-3964
vit	-3965
▁26	-3966
▁52	-3967
▁88	-3968
▁93	-3969
▁bc	-3970
▁ce	-3971
▁cy	-3972
▁dn	-3973
▁ev	-3974
▁fe	-3975
▁ic	-3976
▁ja	-3977
▁ml	-3978
▁ni	-3979
▁sf	-3980
▁tm	-3981
▁vo	-3982
1001	-3983
1006	-3984
aban	-3985
addy	-3986
ados	-3987
agas	-3988
auff	-3989
bird	-3990
clas	-3991
cock	-3992
ding	-3993
ents	-3994
esia	-3995
fort	-3996
girl	-3997
hans	-3998
hers	-3999
icle	-4000
illi	-4001
lash	-4002
lier	-4003
loaf	-4004
nder	-4005
ogen	-4006
onte	-4007
osed	-4008
park	-4009
rier	-4010
ttom	-4011
udys	-4012
▁(.1	-4013
▁(34	-4014
▁(50	-4015
▁(8.	-4016
▁314	-4017
▁501	-4018
▁60%	-4019
▁85%	-4020
▁abo	-4021
▁afc	-4022
▁bit	-4023
▁cos	-4024
▁cus	-4025
▁fru	-4026
▁gfs	-4027
▁jam	-4028
▁jar	-4029
▁jen	-4030
▁joy	-4031
▁kat	-4032
▁kod	-4033
▁men	-4034
▁net	-4035
▁oce	-4036
▁pas	-4037
▁pen	-4038
▁rev	-4039
▁ski	-4040
▁syn	-4041
▁tee	-4042
▁tof	-4043
▁yes	-4044
▁yoc	-4045
▁zen	-4046
10072	-4047
10079	-4048
10081	-4049
celer	-4050
cious	-4051
eless	-4052
erial	-4053
feway	-4054
ights	-4055
iller	-4056
iness	-4057
large	-4058
lasta	-4059
oibos	-4060
oopie	-4061
tivia	-4062
uders	-4063
ugula	-4064
wells	-4065
▁#513	-4066
▁(.67	-4067
▁(8.9	-4068
▁(9.7	-4069
▁24/7	-4070
▁aloe	-4071
▁bare	-4072
▁beer	-4073
▁boba	-4074
▁bolt	-4075
▁braz	-4076
▁cham	-4077
▁dang	-4078
▁dick	-4079
▁eatw	-4080
▁fage	-4081
▁fall	-4082
▁gall	-4083
▁head	-4084
▁hemp	-4085
▁jasm	-4086
▁jell	-4087
▁jill	-4088
▁kiwi	-4089
▁lace	-4090
▁lous	-4091
▁mors	-4092
▁park	-4093
▁prin	-4094
▁root	-4095
▁samp	-4096
▁sher	-4097
▁stro	-4098
▁stuf	-4099
▁sund	-4100
▁tiny	-4101
▁toll	-4102
▁vine	-4103
▁vint	-4104
▁virg	-4105
▁ward	-4106
almond	-4107
auffer	-4108
chevre	-4109
cookie	-4110
ikiddy	-4111
ingers	-4112
ookies	-4113
rilite	-4114
riotic	-4115
thered	-4116
▁(1.42	-4117
▁(1.98	-4118
▁(10.3	-4119
▁(11.3	-4120
▁(12.3	-4121
▁(13.1	-4122
▁(2.47	-4123
▁(2.89	-4124
▁(2.96	-4125
▁(3.52	-4126
▁(5.29	-4127
▁china	-4128
▁coins	-4129
▁corim	-4130
▁cough	-4131
▁crave	-4132
▁crush	-4133
▁cured	-4134
▁daddy	-4135
▁daiya	-4136
▁flake	-4137
▁focus	-4138
▁forto	-4139
▁froth	-4140
▁glory	-4141
▁haban	-4142
▁humbo	-4143
▁label	-4144
▁lajas	-4145
▁loose	-4146
▁lotta	-4147
▁lucky	-4148
▁macys	-4149
▁meyer	-4150
▁milka	-4151
▁muuna	-4152
▁nates	-4153
▁nutty	-4154
▁pitch	-4155
▁royal	-4156
▁silly	-4157
▁smoky	-4158
▁steam	-4159
▁taste	-4160
▁teddy	-4161
▁unlim	-4162
▁zzzmi	-4163
agascar	-4164
natural	-4165
▁(11.16	-4166
▁atkins	-4167
▁austin	-4168
▁barrie	-4169
▁carmel	-4170
▁cheesy	-4171
▁custom	-4172
▁detour	-4173
▁finely	-4174
▁hearty	-4175
▁kinder	-4176
▁kodiak	-4177
▁leaves	-4178
▁linden	-4179
▁loaded	-4180
▁marich	-4181
▁nutter	-4182
▁oregon	-4183
▁purity	-4184
▁rockin	-4185
▁shells	-4186
▁slider	-4187
▁stover	-4188
▁supple	-4189
▁system	-4190
▁tender	-4191
▁trolli	-4192
▁turtle	-4193
▁wafels	-4194
▁watson	-4195
▁yerbae	-4196
ogenized	-4197
snickers	-4198
▁acceler	-4199
▁activia	-4200
▁babcock	-4201
▁belvita	-4202
▁braided	-4203
▁buddies	-4204
▁comfort	-4205
▁dippers	-4206
▁eatwell	-4207
▁exposed	-4208
▁layered	-4209
▁limeade	-4210
▁morsels	-4211
▁nathans	-4212
▁oatmega	-4213
▁pepitas	-4214
▁perrier	-4215
▁promise	-4216
▁redline	-4217
▁rooibos	-4218
▁safeway	-4219
▁sauders	-4220
▁sparkle	-4221
▁vinegar	-4222
▁vintage	-4223
▁yocream	-4224
▁ballpark	-4225
▁beanitos	-4226
▁boneless	-4227
▁brownies	-4228
▁delights	-4229
▁drinking	-4230
▁habanero	-4231
▁humboldt	-4232
▁imperial	-4233
▁macrobar	-4234
▁magnesia	-4235
▁mayfield	-4236
▁meatloaf	-4237
▁orchards	-4238
▁snacking	-4239
▁snikiddy	-4240
▁stauffer	-4241
▁sunspire	-4242
▁superior	-4243
▁throttle	-4244
▁treeline	-4245
▁twinings	-4246
▁evolution	-4247
▁hashbrown	-4248
▁housemade	-4249
▁lifestyle	-4250
▁matchabar	-4251
▁nutrilite	-4252
▁overnight	-4253
▁patriotic	-4254
▁processed	-4255
▁smothered	-4256
▁stonemill	-4257
▁unlimited	-4258
▁brewmaster	-4259
▁madagascar	-4260
▁montchevre	-4261
▁selections	-4262
▁smokehouse	-4263
▁supplement	-4264
▁tripleshot	-4265
▁wildflower	-4266
▁accelerator	-4267
▁homogenized	-4268
▁proteinplus	-4269
▁zzzrobinson	-4270
▁electrolytes	-4271
24	-4272
4)	-4273
44	-4274
54	-4275
55	-4276
57	-4277
60	-4278
69	-4279
90	-4280
cc	-4281
je	-4282
lc	-4283
ui	-4284
vy	-4285
xy	-4286
zu	-4287
000	-4288
007	-4289
017	-4290
029	-4291
046	-4292
08)	-4293
084	-4294
212	-4295
ain	-4296
ape	-4297
atu	-4298
bab	-4299
boe	-4300
cat	-4301
cor	-4302
die	-4303
end	-4304
ept	-4305
fcr	-4306
gat	-4307
igi	-4308
ign	-4309
irc	-4310
lab	-4311
lee	-4312
llo	-4313
los	-4314
mer	-4315
mia	-4316
msk	-4317
nti	-4318
ops	-4319
ple	-4320
pro	-4321
raz	-4322
rei	-4323
ris	-4324
row	-4325
ulg	-4326
ury	-4327
uts	-4328
val	-4329
van	-4330
vel	-4331
vis	-4332
▁#7	-4333
▁#9	-4334
▁28	-4335
▁39	-4336
▁40	-4337
▁42	-4338
▁63	-4339
▁66	-4340
▁au	-4341
▁gn	-4342
▁gs	-4343
▁lb	-4344
▁ly	-4345
▁ti	-4346
▁ug	-4347
▁xt	-4348
anas	-4349
ance	-4350
aola	-4351
atem	-4352
auka	-4353
bast	-4354
beez	-4355
bisc	-4356
bles	-4357
bula	-4358
carb	-4359
dale	-4360
diva	-4361
hemi	-4362
icro	-4363
ilee	-4364
imbo	-4365
ires	-4366
ject	-4367
kkah	-4368
ligh	-4369
mens	-4370
nade	-4371
nets	-4372
orno	-4373
peas	-4374
quet	-4375
rich	-4376
ride	-4377
room	-4378
scot	-4379
ship	-4380
ston	-4381
vies	-4382
ving	-4383
vour	-4384
ward	-4385
ways	-4386
weed	-4387
yson	-4388
zzar	-4389
▁#06	-4390
▁#13	-4391
▁(42	-4392
▁(56	-4393
▁(96	-4394
▁10"	-4395
▁103	-4396
▁11)	-4397
▁114	-4398
▁14)	-4399
▁156	-4400
▁202	-4401
▁208	-4402
▁312	-4403
▁32)	-4404
▁55%	-4405
▁789	-4406
▁925	-4407
▁ant	-4408
▁blt	-4409
▁blu	-4410
▁cad	-4411
▁cod	-4412
▁dot	-4413
▁ear	-4414
▁end	-4415
▁esc	-4416
▁hol	-4417
▁jub	-4418
▁kak	-4419
▁mid	-4420
▁moo	-4421
▁nar	-4422
▁nou	-4423
▁rod	-4424
▁sna	-4425
▁spi	-4426
▁uns	-4427
andar	-4428
arded	-4429
aroos	-4430
ashed	-4431
athon	-4432
banon	-4433
bbits	-4434
ckout	-4435
duras	-4436
eptic	-4437
esens	-4438
essed	-4439
ident	-4440
illet	-4441
inner	-4442
lenti	-4443
ouria	-4444
quier	-4445
ragon	-4446
sters	-4447
uccis	-4448
ucket	-4449
uckle	-4450
urkey	-4451
ussie	-4452
ustle	-4453
veeta	-4454
zzini	-4455
▁#174	-4456
▁(.63	-4457
▁(.89	-4458
▁(.92	-4459
▁108)	-4460
▁210)	-4461
▁8381	-4462
▁arch	-4463
▁baja	-4464
▁bart	-4465
▁blon	-4466
▁bros	-4467
▁buds	-4468
▁cane	-4469
▁cape	-4470
▁circ	-4471
▁clam	-4472
▁comm	-4473
▁digi	-4474
▁duos	-4475
▁eden	-4476
▁eggo	-4477
▁elis	-4478
▁epic	-4479
▁fant	-4480
▁fine	-4481
▁foot	-4482
▁from	-4483
▁give	-4484
▁hanu	-4485
▁kern	-4486
▁kids	-4487
▁leon	-4488
▁mood	-4489
▁olly	-4490
▁owyn	-4491
▁piro	-4492
▁posh	-4493
▁prep	-4494
▁razz	-4495
▁redd	-4496
▁roar	-4497
▁sens	-4498
▁slow	-4499
▁stel	-4500
▁ster	-4501
▁tass	-4502
▁tree	-4503
▁unle	-4504
▁viso	-4505
▁well	-4506
▁wilm	-4507
▁yume	-4508
▁zzzb	-4509
100796	-4510
atulia	-4511
biscus	-4512
boeing	-4513
burger	-4514
catraz	-4515
hemian	-4516
isbury	-4517
ittata	-4518
oodles	-4519
peanut	-4520
ration	-4521
reiber	-4522
rition	-4523
scotch	-4524
uckers	-4525
utcher	-4526
▁(1.34	-4527
▁(1.35	-4528
▁(1.49	-4529
▁(1.65	-4530
▁(1.77	-4531
▁(1.85	-4532
▁(1.87	-4533
▁(10.7	-4534
▁(17.5	-4535
▁(2.33	-4536
▁(2.83	-4537
▁(23.5	-4538
▁(28.3	-4539
▁(4.44	-4540
▁(4.94	-4541
▁(4.97	-4542
▁(8.82	-4543
▁(8.87	-4544
▁about	-4545
▁baird	-4546
▁bakes	-4547
▁bimbo	-4548
▁bratw	-4549
▁color	-4550
▁cyrus	-4551
▁decad	-4552
▁elite	-4553
▁exact	-4554
▁graze	-4555
▁grind	-4556
▁guers	-4557
▁judys	-4558
▁kauka	-4559
▁killa	-4560
▁lavit	-4561
▁maola	-4562
▁maria	-4563
▁micro	-4564
▁oikos	-4565
▁ovens	-4566
▁parks	-4567
▁phorm	-4568
▁polly	-4569
▁pride	-4570
▁quich	-4571
▁raaka	-4572
▁rhino	-4573
▁ridge	-4574
▁rocky	-4575
▁santa	-4576
▁scone	-4577
▁shape	-4578
▁sooth	-4579
▁squee	-4580
▁sysco	-4581
▁turbo	-4582
▁tyson	-4583
▁world	-4584
▁xoxox	-4585
▁zebra	-4586
▁zevia	-4587
adillac	-4588
atemala	-4589
zzaroma	-4590
▁(11.15	-4591
▁(2.375	-4592
▁amazon	-4593
▁aponte	-4594
▁ashers	-4595
▁aussie	-4596
▁bakers	-4597
▁baobab	-4598
▁bottom	-4599
▁brazil	-4600
▁breaks	-4601
▁bugles	-4602
▁cheeky	-4603
▁devour	-4604
▁dinner	-4605
▁dunkin	-4606
▁essent	-4607
▁estate	-4608
▁fiesta	-4609
▁flower	-4610
▁fruity	-4611
▁galaxy	-4612
▁godiva	-4613
▁grated	-4614
▁harris	-4615
▁hearts	-4616
▁hummus	-4617
▁hustle	-4618
▁indulg	-4619
▁killer	-4620
▁kisses	-4621
▁kosher	-4622
▁malted	-4623
▁mandar	-4624
▁mexico	-4625
▁minced	-4626
▁multip	-4627
▁natrel	-4628
▁nebula	-4629
▁nettle	-4630
▁nougat	-4631
▁oleary	-4632
▁pearls	-4633
▁pecans	-4634
▁promax	-4635
▁purple	-4636
▁refres	-4637
▁refuel	-4638
▁sanded	-4639
▁sebast	-4640
▁selmas	-4641
▁sheeps	-4642
▁smokey	-4643
▁smores	-4644
▁spices	-4645
▁splash	-4646
▁sprink	-4647
▁trails	-4648
▁vitner	-4649
▁arugula	-4650
▁aseptic	-4651
▁barnana	-4652
▁baronet	-4653
▁bazzini	-4654
▁bearded	-4655
▁bennets	-4656
▁blended	-4657
▁broiled	-4658
▁butcher	-4659
▁butterf	-4660
▁cadbury	-4661
▁caveman	-4662
▁crinkle	-4663
▁divvies	-4664
▁escapes	-4665
▁filling	-4666
▁grenade	-4667
▁hippeas	-4668
▁jubilee	-4669
▁lebanon	-4670
▁liberte	-4671
▁marbled	-4672
▁martins	-4673
▁maxines	-4674
▁monclas	-4675
▁petites	-4676
▁pipcorn	-4677
▁portion	-4678
▁pressed	-4679
▁riesens	-4680
▁seaweed	-4681
▁sprouts	-4682
▁sweeten	-4683
▁synergy	-4684
▁talenti	-4685
▁tassimo	-4686
▁upouria	-4687
▁western	-4688
▁whoopie	-4689
▁alcatraz	-4690
▁balanced	-4691
▁beechers	-4692
▁bohemian	-4693
▁cadillac	-4694
▁cheddies	-4695
▁classico	-4696
▁classics	-4697
▁cleaning	-4698
▁digiorno	-4699
▁football	-4700
▁frittata	-4701
▁hanukkah	-4702
▁hardcore	-4703
▁hibiscus	-4704
▁honduras	-4705
▁kaukauna	-4706
▁knockout	-4707
▁marathon	-4708
▁midnight	-4709
▁mushroom	-4710
▁naturals	-4711
▁pasquier	-4712
▁smuckers	-4713
▁soothing	-4714
▁sterling	-4715
▁sundried	-4716
▁teatulia	-4717
▁velveeta	-4718
▁yumearth	-4719
▁bratwurst	-4720
▁community	-4721
▁dunkaroos	-4722
▁galluccis	-4723
▁guatemala	-4724
▁heartland	-4725
▁kakookies	-4726
▁leonettis	-4727
▁mezzaroma	-4728
▁precooked	-4729
▁president	-4730
▁salisbury	-4731
▁schreiber	-4732
▁seasoning	-4733
▁stringles	-4734
▁wonderful	-4735
▁cheesiness	-4736
▁cloverland	-4737
▁creamstyle	-4738
▁fieldstone	-4739
▁purealmond	-4740
▁sebastiano	-4741
▁snackwells	-4742
▁raspberries	-4743
▁thunderbird	-4744
▁zzzgrandmas	-4745
▁butterscotch	-4746
(1	-4747
(5	-4748
+1	-4749
/4	-4750
62	-4751
82	-4752
ii	-4753
pa	-4754
py	-4755
qr	-4756
uv	-4757
uy	-4758
▁)	-4759
▁0	-4760
/48	-4761
006	-4762
019	-4763
021	-4764
056	-4765
061	-4766
089	-4767
107	-4768
119	-4769
129	-4770
197	-4771
201	-4772
6.5	-4773
730	-4774
88)	-4775
alf	-4776
ave	-4777
ayo	-4778
bbq	-4779
boy	-4780
eye	-4781
eys	-4782
ged	-4783
gra	-4784
hoo	-4785
ids	-4786
ied	-4787
iya	-4788
jun	-4789
kis	-4790
kos	-4791
lbs	-4792
leb	-4793
mes	-4794
nas	-4795
oci	-4796
oji	-4797
ond	-4798
ool	-4799
oom	-4800
osa	-4801
ovo	-4802
ref	-4803
res	-4804
rna	-4805
rne	-4806
tob	-4807
une	-4808
ura	-4809
usa	-4810
vas	-4811
wik	-4812
▁#6	-4813
▁(0	-4814
▁22	-4815
▁23	-4816
▁33	-4817
▁34	-4818
▁73	-4819
▁78	-4820
▁ab	-4821
▁hm	-4822
▁jm	-4823
▁jr	-4824
▁oo	-4825
▁pa	-4826
▁yo	-4827
achs	-4828
anni	-4829
ante	-4830
aped	-4831
assy	-4832
bbon	-4833
bute	-4834
cafe	-4835
char	-4836
ched	-4837
chee	-4838
chin	-4839
chup	-4840
cial	-4841
cier	-4842
dike	-4843
erra	-4844
fano	-4845
fizz	-4846
hanc	-4847
hini	-4848
hive	-4849
ibou	-4850
icks	-4851
iena	-4852
inia	-4853
inis	-4854
ints	-4855
inza	-4856
irlo	-4857
isin	-4858
kete	-4859
ksys	-4860
lers	-4861
lies	-4862
mach	-4863
moor	-4864
mskt	-4865
nies	-4866
omas	-4867
onzo	-4868
quit	-4869
tall	-4870
ugar	-4871
urro	-4872
usel	-4873
uted	-4874
vada	-4875
well	-4876
▁#17	-4877
▁#25	-4878
▁(39	-4879
▁(49	-4880
▁(5.	-4881
▁(67	-4882
▁106	-4883
▁22)	-4884
▁26)	-4885
▁278	-4886
▁309	-4887
▁313	-4888
▁32%	-4889
▁36)	-4890
▁965	-4891
▁ale	-4892
▁des	-4893
▁dil	-4894
▁fil	-4895
▁fri	-4896
▁gnp	-4897
▁haz	-4898
▁hun	-4899
▁its	-4900
▁jif	-4901
▁joc	-4902
▁kor	-4903
▁lay	-4904
▁mul	-4905
▁mus	-4906
▁nes	-4907
▁not	-4908
▁pak	-4909
▁pdi	-4910
▁ren	-4911
▁sat	-4912
▁sho	-4913
▁sil	-4914
▁sla	-4915
▁sol	-4916
▁tam	-4917
▁tap	-4918
▁tim	-4919
▁vos	-4920
▁yoo	-4921
▁zip	-4922
10012	-4923
10074	-4924
akers	-4925
ality	-4926
arian	-4927
arias	-4928
auvin	-4929
ckers	-4930
cotti	-4931
ddles	-4932
eldon	-4933
enity	-4934
ensoy	-4935
essie	-4936
ettes	-4937
fetti	-4938
illys	-4939
iyaki	-4940
laine	-4941
lance	-4942
lover	-4943
ource	-4944
pjack	-4945
razon	-4946
small	-4947
stand	-4948
sweet	-4949
tened	-4950
urant	-4951
uvian	-4952
uyere	-4953
white	-4954
▁#123	-4955
▁(.08	-4956
▁(.58	-4957
▁(.91	-4958
▁(.99	-4959
▁(250	-4960
▁(8.7	-4961
▁(9.9	-4962
▁1556	-4963
▁160)	-4964
▁288)	-4965
▁324)	-4966
▁400)	-4967
▁beet	-4968
▁bevi	-4969
▁bran	-4970
▁brea	-4971
▁cand	-4972
▁capt	-4973
▁chub	-4974
▁coca	-4975
▁curl	-4976
▁dart	-4977
▁days	-4978
▁dies	-4979
▁disc	-4980
▁drop	-4981
▁duds	-4982
▁earl	-4983
▁easy	-4984
▁fear	-4985
▁ferr	-4986
▁fite	-4987
▁flan	-4988
▁gone	-4989
▁gorg	-4990
▁guay	-4991
▁heat	-4992
▁hell	-4993
▁jays	-4994
▁july	-4995
▁klon	-4996
▁koia	-4997
▁kwik	-4998
▁late	-4999
▁lord	-5000
▁luis	-5001
▁macs	-5002
▁marz	-5003
▁munk	-5004
▁nant	-5005
▁nibs	-5006
▁nico	-5007
▁noth	-5008
▁orca	-5009
▁pats	-5010
▁post	-5011
▁pros	-5012
▁reds	-5013
▁rick	-5014
▁serv	-5015
▁slee	-5016
▁soap	-5017
▁spon	-5018
▁stra	-5019
▁tail	-5020
▁thai	-5021
▁tofu	-5022
▁trio	-5023
▁urne	-5024
▁vega	-5025
▁vera	-5026
▁vooz	-5027
▁xing	-5028
▁yeah	-5029
▁zico	-5030
altest	-5031
bblers	-5032
energy	-5033
erador	-5034
estial	-5035
fields	-5036
lander	-5037
machia	-5038
marine	-5039
medium	-5040
onzola	-5041
opolis	-5042
rating	-5043
riched	-5044
ssmoor	-5045
uguese	-5046
varies	-5047
▁(.833	-5048
▁(1.22	-5049
▁(1.26	-5050
▁(1.33	-5051
▁(1.44	-5052
▁(1.45	-5053
▁(1.73	-5054
▁(10.4	-5055
▁(13.8	-5056
▁(14.4	-5057
▁(19.2	-5058
▁(2.15	-5059
▁(2.22	-5060
▁(21.6	-5061
▁(3.04	-5062
▁(3.35	-5063
▁(4.23	-5064
▁(5.35	-5065
▁(5.37	-5066
▁(5.49	-5067
▁(5.64	-5068
▁(5.89	-5069
▁(6.15	-5070
▁(6.65	-5071
▁(7.35	-5072
▁(7.51	-5073
▁acres	-5074
▁amaze	-5075
▁andys	-5076
▁batch	-5077
▁biena	-5078
▁blues	-5079
▁bonne	-5080
▁boyer	-5081
▁brain	-5082
▁broad	-5083
▁byrne	-5084
▁cajun	-5085
▁celeb	-5086
▁charm	-5087
▁doone	-5088
▁emoji	-5089
▁ginny	-5090
▁gravy	-5091
▁jones	-5092
▁kandy	-5093
▁level	-5094
▁lorna	-5095
▁mallo	-5096
▁melta	-5097
▁merry	-5098
▁moder	-5099
▁nuovo	-5100
▁owens	-5101
▁peets	-5102
▁petit	-5103
▁rebbl	-5104
▁resta	-5105
▁rinza	-5106
▁rovas	-5107
▁sassy	-5108
▁share	-5109
▁siren	-5110
▁slush	-5111
▁smash	-5112
▁sodel	-5113
▁spike	-5114
▁spout	-5115
▁squaw	-5116
▁stand	-5117
▁steve	-5118
▁stout	-5119
▁stump	-5120
▁swell	-5121
▁tacos	-5122
▁thick	-5123
▁tinas	-5124
▁treas	-5125
▁uncle	-5126
▁urban	-5127
▁verde	-5128
▁zesty	-5129
blerone	-5130
caramel	-5131
dalenas	-5132
ettante	-5133
keteers	-5134
lection	-5135
ociates	-5136
razonas	-5137
ropolis	-5138
sterdam	-5139
tobello	-5140
▁(11.75	-5141
▁(14.25	-5142
▁active	-5143
▁avenue	-5144
▁barcel	-5145
▁blakes	-5146
▁brachs	-5147
▁braids	-5148
▁buddig	-5149
▁chedda	-5150
▁churro	-5151
▁colors	-5152
▁cremes	-5153
▁crepes	-5154
▁davids	-5155
▁delish	-5156
▁dragon	-5157
▁ecolab	-5158
▁empire	-5159
▁enhanc	-5160
▁enligh	-5161
▁farmer	-5162
▁fisher	-5163
▁freeze	-5164
▁fridge	-5165
▁harney	-5166
▁honeys	-5167
▁jessie	-5168
▁master	-5169
▁morats	-5170
▁mother	-5171
▁nevada	-5172
▁nugget	-5173
▁nuksys	-5174
▁pocket	-5175
▁popper	-5176
▁ribbon	-5177
▁saints	-5178
▁school	-5179
▁shaped	-5180
▁sierra	-5181
▁source	-5182
▁sports	-5183
▁swings	-5184
▁tahini	-5185
▁teeter	-5186
▁thomas	-5187
▁topper	-5188
▁weldon	-5189
▁zzzmgf	-5190
▁zzzpet	-5191
▁atlasta	-5192
▁bananas	-5193
▁banquet	-5194
▁blondie	-5195
▁breaker	-5196
▁candied	-5197
▁carando	-5198
▁caribou	-5199
▁central	-5200
▁chauvin	-5201
▁cowgirl	-5202
▁daisies	-5203
▁doodles	-5204
▁edensoy	-5205
▁everett	-5206
▁fashion	-5207
▁fingers	-5208
▁fiteats	-5209
▁fontana	-5210
▁fortune	-5211
▁glacier	-5212
▁grabeez	-5213
▁grinder	-5214
▁gruyere	-5215
▁jocalat	-5216
▁ketchup	-5217
▁lightly	-5218
▁loacker	-5219
▁maninis	-5220
▁middles	-5221
▁nicoise	-5222
▁peppers	-5223
▁rabbits	-5224
▁redwood	-5225
▁refried	-5226
▁roaring	-5227
▁sampler	-5228
▁sathers	-5229
▁snacked	-5230
▁squeeze	-5231
▁stefano	-5232
▁sundaes	-5233
▁tablets	-5234
▁tribute	-5235
▁veggies	-5236
▁vickies	-5237
▁wedding	-5238
▁xingtea	-5239
▁zipfizz	-5240
blueberry	-5241
rigerated	-5242
▁artisola	-5243
▁chocolat	-5244
▁confetti	-5245
▁crafters	-5246
▁crumbles	-5247
▁decadent	-5248
▁drizzled	-5249
▁enriched	-5250
▁grilling	-5251
▁klondike	-5252
▁mandarin	-5253
▁nibblers	-5254
▁peruvian	-5255
▁powdered	-5256
▁principe	-5257
▁puremade	-5258
▁ricemilk	-5259
▁rickland	-5260
▁sealtest	-5261
▁serenity	-5262
▁sprouted	-5263
▁streusel	-5264
▁sunburst	-5265
▁teriyaki	-5266
▁tomatoes	-5267
▁tornados	-5268
▁trailbar	-5269
▁virginia	-5270
▁watchers	-5271
▁zzzlance	-5272
▁amsterdam	-5273
▁annabella	-5274
▁applewood	-5275
▁celestial	-5276
▁chickpeas	-5277
▁corazonas	-5278
▁emperador	-5279
▁flavoring	-5280
▁foodology	-5281
▁grassmilk	-5282
▁hellmanns	-5283
▁hollander	-5284
▁hydration	-5285
▁infusions	-5286
▁mammachia	-5287
▁manicotti	-5288
▁nantucket	-5289
▁shortcake	-5290
▁sprinkles	-5291
▁stumptown	-5292
▁submarine	-5293
▁sweetened	-5294
▁toblerone	-5295
▁zzzturkey	-5296
▁zzzvaries	-5297
▁associates	-5298
▁butterball	-5299
▁coffeecake	-5300
▁collection	-5301
▁dilettante	-5302
▁goodcookie	-5303
▁gorgonzola	-5304
▁indulgence	-5305
▁magdalenas	-5306
▁metropolis	-5307
▁musketeers	-5308
▁portobello	-5309
▁portuguese	-5310
▁restaurant	-5311
▁tortelloni	-5312
▁wilmington	-5313
▁zzzcrystal	-5314
▁bakersource	-5315
▁buttercream	-5316
▁enlightened	-5317
▁sodelicious	-5318
▁refrigerated	-5319
▁popcornopolis	-5320
▁zzzmiddletown	-5321
(2	-5322
(8	-5323
/6	-5324
61	-5325
79	-5326
87	-5327
92	-5328
95	-5329
dr	-5330
ef	-5331
jo	-5332
lf	-5333
lx	-5334
mh	-5335
ov	-5336
sr	-5337
.11	-5338
.35	-5339
.71	-5340
013	-5341
022	-5342
024	-5343
037	-5344
040	-5345
050	-5346
055	-5347
072	-5348
104	-5349
125	-5350
131	-5351
315	-5352
321	-5353
362	-5354
365	-5355
abi	-5356
ags	-5357
ali	-5358
amo	-5359
ane	-5360
apo	-5361
asy	-5362
bec	-5363
chs	-5364
ckh	-5365
cre	-5366
dic	-5367
dip	-5368
eda	-5369
eil	-5370
ert	-5371
eth	-5372
faj	-5373
fin	-5374
fir	-5375
fit	-5376
ggi	-5377
ggy	-5378
gre	-5379
har	-5380
hoe	-5381
ics	-5382
ivo	-5383
jus	-5384
kan	-5385
ket	-5386
kit	-5387
lem	-5388
lig	-5389
mat	-5390
mbo	-5391
mic	-5392
nic	-5393
nys	-5394
oat	-5395
omi	-5396
omp	-5397
opw	-5398
osi	-5399
ozy	-5400
pch	-5401
pel	-5402
que	-5403
rek	-5404
ron	-5405
soy	-5406
sue	-5407
tel	-5408
tto	-5409
ubu	-5410
uka	-5411
uzu	-5412
whe	-5413
wls	-5414
zee	-5415
▁#8	-5416
▁08	-5417
▁20	-5418
▁35	-5419
▁5)	-5420
▁50	-5421
▁53	-5422
▁58	-5423
▁82	-5424
▁9)	-5425
▁90	-5426
▁95	-5427
▁bt	-5428
▁cu	-5429
▁dc	-5430
▁eg	-5431
▁fa	-5432
▁iq	-5433
▁na	-5434
▁oz	-5435
▁pu	-5436
▁ss	-5437
▁us	-5438
▁wy	-5439
▁yi	-5440
(7.5	-5441
acea	-5442
acia	-5443
acks	-5444
acys	-5445
afel	-5446
agon	-5447
alou	-5448
aper	-5449
apop	-5450
arma	-5451
atch	-5452
baut	-5453
burg	-5454
coco	-5455
cope	-5456
ctic	-5457
dark	-5458
edar	-5459
edib	-5460
eils	-5461
elon	-5462
etta	-5463
fuls	-5464
gged	-5465
half	-5466
hava	-5467
hiop	-5468
hona	-5469
ials	-5470
idan	-5471
ider	-5472
idos	-5473
iles	-5474
inos	-5475
ipan	-5476
irls	-5477
isha	-5478
java	-5479
limp	-5480
llys	-5481
lten	-5482
meal	-5483
medy	-5484
onas	-5485
orke	-5486
oruc	-5487
ozys	-5488
pean	-5489
ping	-5490
pres	-5491
rant	-5492
rity	-5493
shki	-5494
shot	-5495
snap	-5496
ssnk	-5497
tuna	-5498
ubbs	-5499
ucch	-5500
udel	-5501
ulif	-5502
umor	-5503
utte	-5504
vana	-5505
veia	-5506
wick	-5507
wise	-5508
wton	-5509
yday	-5510
▁#08	-5511
▁#15	-5512
▁#27	-5513
▁(43	-5514
▁(45	-5515
▁(60	-5516
▁(63	-5517
▁(72	-5518
▁(80	-5519
▁111	-5520
▁113	-5521
▁154	-5522
▁283	-5523
▁300	-5524
▁304	-5525
▁306	-5526
▁307	-5527
▁316	-5528
▁318	-5529
▁325	-5530
▁39%	-5531
▁40%	-5532
▁406	-5533
▁45)	-5534
▁48)	-5535
▁50%	-5536
▁72)	-5537
▁80)	-5538
▁826	-5539
▁973	-5540
▁alt	-5541
▁aqu	-5542
▁arg	-5543
▁arm	-5544
▁bos	-5545
▁bru	-5546
▁chi	-5547
▁cor	-5548
▁dao	-5549
▁duo	-5550
▁eat	-5551
▁fix	-5552
▁fly	-5553
▁fol	-5554
▁gel	-5555
▁get	-5556
▁gil	-5557
▁imm	-5558
▁irv	-5559
▁kas	-5560
▁loz	-5561
▁mer	-5562
▁mur	-5563
▁nob	-5564
▁nsa	-5565
▁nun	-5566
▁off	-5567
▁oui	-5568
▁pal	-5569
▁pin	-5570
▁pol	-5571
▁pom	-5572
▁rig	-5573
▁ron	-5574
▁sau	-5575
▁sin	-5576
▁slo	-5577
▁tab	-5578
▁ten	-5579
▁tjs	-5580
▁tlc	-5581
▁udi	-5582
(7.25	-5583
accia	-5584
afson	-5585
agoba	-5586
alted	-5587
annia	-5588
arana	-5589
armor	-5590
bbles	-5591
bears	-5592
becue	-5593
bells	-5594
bites	-5595
brada	-5596
cello	-5597
chick	-5598
cient	-5599
credi	-5600
damom	-5601
drink	-5602
elick	-5603
elper	-5604
enges	-5605
fredo	-5606
ggins	-5607
ierre	-5608
ilant	-5609
iposa	-5610
ishot	-5611
kanto	-5612
lagen	-5613
lenut	-5614
lunch	-5615
mboli	-5616
meric	-5617
moked	-5618
nolia	-5619
nover	-5620
omage	-5621
omile	-5622
place	-5623
plain	-5624
print	-5625
rhona	-5626
shell	-5627
sicle	-5628
straw	-5629
ttles	-5630
usted	-5631
utino	-5632
valia	-5633
venti	-5634
wards	-5635
warth	-5636
water	-5637
whole	-5638
▁#100	-5639
▁#138	-5640
▁(.48	-5641
▁(.60	-5642
▁(.65	-5643
▁(.66	-5644
▁(.95	-5645
▁(200	-5646
▁(3/4	-5647
▁1001	-5648
▁135)	-5649
▁150)	-5650
▁1558	-5651
▁1605	-5652
▁180)	-5653
▁3035	-5654
▁4505	-5655
▁6002	-5656
▁anch	-5657
▁auth	-5658
▁baya	-5659
▁belf	-5660
▁bode	-5661
▁bone	-5662
▁boss	-5663
▁caes	-5664
▁calm	-5665
▁capp	-5666
▁cfcr	-5667
▁chro	-5668
▁claw	-5669
▁crab	-5670
▁cuts	-5671
▁dale	-5672
▁dots	-5673
▁down	-5674
▁drum	-5675
▁eats	-5676
▁ecot	-5677
▁elmh	-5678
▁espe	-5679
▁fest	-5680
▁fizz	-5681
▁flex	-5682
▁foil	-5683
▁frey	-5684
▁frsr	-5685
▁gens	-5686
▁gift	-5687
▁gina	-5688
▁giov	-5689
▁goji	-5690
▁grey	-5691
▁guss	-5692
▁gust	-5693
▁guys	-5694
▁hacc	-5695
▁hail	-5696
▁hals	-5697
▁hunk	-5698
▁icon	-5699
▁juic	-5700
▁kane	-5701
▁kayo	-5702
▁klem	-5703
▁kozy	-5704
▁live	-5705
▁loco	-5706
▁logo	-5707
▁long	-5708
▁lyte	-5709
▁maca	-5710
▁monk	-5711
▁mymo	-5712
▁nehi	-5713
▁oked	-5714
▁orow	-5715
▁peak	-5716
▁phys	-5717
▁play	-5718
▁pria	-5719
▁rana	-5720
▁rays	-5721
▁reli	-5722
▁ribs	-5723
▁ruby	-5724
▁samm	-5725
▁spot	-5726
▁that	-5727
▁tosi	-5728
▁trim	-5729
▁uber	-5730
▁vans	-5731
▁vend	-5732
▁wash	-5733
▁whoa	-5734
▁xomi	-5735
▁yuzu	-5736
▁zzzd	-5737
▁zzzr	-5738
ademia	-5739
alized	-5740
andras	-5741
atures	-5742
butter	-5743
ckhart	-5744
corice	-5745
dipped	-5746
france	-5747
freeda	-5748
grande	-5749
hiopia	-5750
ichoke	-5751
iments	-5752
irloom	-5753
lesons	-5754
limpie	-5755
nation	-5756
ntines	-5757
ompson	-5758
orello	-5759
orucci	-5760
quitos	-5761
sticks	-5762
suemor	-5763
ubucha	-5764
varian	-5765
versys	-5766
▁(.625	-5767
▁(1.02	-5768
▁(1.07	-5769
▁(1.17	-5770
▁(1.19	-5771
▁(10.1	-5772
▁(1000	-5773
▁(11.7	-5774
▁(13.2	-5775
▁(13.6	-5776
▁(14.6	-5777
▁(15.4	-5778
▁(15.9	-5779
▁(16.5	-5780
▁(17.2	-5781
▁(19.8	-5782
▁(2.04	-5783
▁(2.32	-5784
▁(2.36	-5785
▁(2.72	-5786
▁(2.88	-5787
▁(26.4	-5788
▁(3.15	-5789
▁(3.16	-5790
▁(3.28	-5791
▁(3.43	-5792
▁(3.46	-5793
▁(3.85	-5794
▁(32.7	-5795
▁(34.5	-5796
▁(35.2	-5797
▁(4.02	-5798
▁(4.15	-5799
▁(4.64	-5800
▁(5.22	-5801
▁(5.32	-5802
▁(5.96	-5803
▁(6.17	-5804
▁(6.38	-5805
▁(6.74	-5806
▁(6.85	-5807
▁(6.98	-5808
▁(7.61	-5809
▁(9.42	-5810
▁(9.55	-5811
▁(9.65	-5812
▁alfaj	-5813
▁amore	-5814
▁aujus	-5815
▁bawls	-5816
▁blair	-5817
▁board	-5818
▁bowls	-5819
▁brick	-5820
▁bubly	-5821
▁burke	-5822
▁burry	-5823
▁canel	-5824
▁catch	-5825
▁cedar	-5826
▁cider	-5827
▁cloud	-5828
▁cones	-5829
▁conti	-5830
▁craze	-5831
▁crest	-5832
▁cuban	-5833
▁discs	-5834
▁dolce	-5835
▁echin	-5836
▁elder	-5837
▁evans	-5838
▁evapo	-5839
▁eveia	-5840
▁felon	-5841
▁ferry	-5842
▁filet	-5843
▁finca	-5844
▁flash	-5845
▁flore	-5846
▁frank	-5847
▁hills	-5848
▁humor	-5849
▁icing	-5850
▁jackd	-5851
▁jamba	-5852
▁karma	-5853
▁kefir	-5854
▁kitty	-5855
▁lifes	-5856
▁louis	-5857
▁lower	-5858
▁maman	-5859
▁mamas	-5860
▁melty	-5861
▁menth	-5862
▁mochi	-5863
▁nonna	-5864
▁ocean	-5865
▁packs	-5866
▁paqui	-5867
▁patch	-5868
▁peace	-5869
▁peggy	-5870
▁penne	-5871
▁piece	-5872
▁point	-5873
▁polar	-5874
▁prana	-5875
▁pucks	-5876
▁queso	-5877
▁racha	-5878
▁rainy	-5879
▁reign	-5880
▁renew	-5881
▁rible	-5882
▁ricos	-5883
▁sabra	-5884
▁seven	-5885
▁shack	-5886
▁shine	-5887
▁skins	-5888
▁solid	-5889
▁sssnk	-5890
▁sting	-5891
▁storm	-5892
▁tahoe	-5893
▁terra	-5894
▁thats	-5895
▁thumb	-5896
▁toggi	-5897
▁torke	-5898
▁tribe	-5899
▁truth	-5900
▁urnex	-5901
▁wafel	-5902
▁wells	-5903
▁worms	-5904
▁yield	-5905
▁zucch	-5906
▁zzzla	-5907
cheddar	-5908
country	-5909
cracker	-5910
edibles	-5911
endship	-5912
illiant	-5913
kitchen	-5914
lectivo	-5915
minelli	-5916
opwafel	-5917
pareils	-5918
rigrain	-5919
tlemens	-5920
▁(10.56	-5921
▁8381.4	-5922
▁action	-5923
▁arctic	-5924
▁basket	-5925
▁bitter	-5926
▁blacks	-5927
▁boston	-5928
▁brands	-5929
▁bridge	-5930
▁cannon	-5931
▁canola	-5932
▁caulif	-5933
▁celery	-5934
▁charms	-5935
▁circus	-5936
▁claras	-5937
▁columb	-5938
▁corner	-5939
▁crumbs	-5940
▁dagoba	-5941
▁daoher	-5942
▁delite	-5943
▁dipper	-5944
▁drinks	-5945
▁empact	-5946
▁evolve	-5947
▁fillet	-5948
▁fitpro	-5949
▁fitzee	-5950
▁flavia	-5951
▁flying	-5952
▁fresco	-5953
▁frosty	-5954
▁galant	-5955
▁geisha	-5956
▁gilman	-5957
▁grande	-5958
▁helper	-5959
▁higher	-5960
▁houtte	-5961
▁jacked	-5962
▁kickin	-5963
▁kimber	-5964
▁lawton	-5965
▁magnum	-5966
▁mallow	-5967
▁matter	-5968
▁mellow	-5969
▁milked	-5970
▁mojito	-5971
▁mollys	-5972
▁molten	-5973
▁muller	-5974
▁murray	-5975
▁noodle	-5976
▁oceans	-5977
▁palmer	-5978
▁propel	-5979
▁purely	-5980
▁quiche	-5981
▁really	-5982
▁reaper	-5983
▁remedy	-5984
▁ridges	-5985
▁robert	-5986
▁rounds	-5987
▁royale	-5988
▁silver	-5989
▁sloppy	-5990
▁sonora	-5991
▁soozys	-5992
▁sponch	-5993
▁stacys	-5994
▁steaks	-5995
▁stella	-5996
▁stubbs	-5997
▁swirls	-5998
▁tejava	-5999
▁trader	-6000
▁uglies	-6001
▁willys	-6002
▁wooden	-6003
▁xtreme	-6004
▁zinger	-6005
credible	-6006
highland	-6007
idoscope	-6008
refriger	-6009
▁(5.75",	-6010
▁alfredo	-6011
▁ancient	-6012
▁archway	-6013
▁argires	-6014
▁authent	-6015
▁bakerly	-6016
▁beckers	-6017
▁beehive	-6018
▁blimpie	-6019
▁boosted	-6020
▁boursin	-6021
▁brother	-6022
▁bunnies	-6023
▁buttery	-6024
▁carleys	-6025
▁cluster	-6026
▁crafted	-6027
▁crocker	-6028
▁diestel	-6029
▁ecotrek	-6030
▁edwards	-6031
▁essence	-6032
▁estates	-6033
▁eversys	-6034
▁fantasy	-6035
▁fillers	-6036
▁fitness	-6037
▁fontina	-6038
▁fortuna	-6039
▁gevalia	-6040
▁glasser	-6041
▁glutino	-6042
▁grandma	-6043
▁guarana	-6044
▁guayusa	-6045
▁gummies	-6046
▁gussies	-6047
▁higgins	-6048
▁highkey	-6049
▁irvines	-6050
▁jasmine	-6051
▁koppers	-6052
▁labrada	-6053
▁lakanto	-6054
▁macaron	-6055
▁madhava	-6056
▁marleys	-6057
▁moderna	-6058
▁mothers	-6059
▁nectars	-6060
▁nescafe	-6061
▁okedoke	-6062
▁oroweat	-6063
▁pickles	-6064
▁pitcher	-6065
▁pouches	-6066
▁praline	-6067
▁product	-6068
▁project	-6069
▁quality	-6070
▁replace	-6071
▁salmons	-6072
▁shakers	-6073
▁sherbet	-6074
▁sigonas	-6075
▁snackin	-6076
▁spanish	-6077
▁spreads	-6078
▁stripes	-6079
▁strudel	-6080
▁sunkist	-6081
▁twinkie	-6082
▁westsoy	-6083
chickapop	-6084
loverhill	-6085
▁barbecue	-6086
▁baseball	-6087
▁bavarian	-6088
▁bodecker	-6089
▁cardamom	-6090
▁coldsnap	-6091
▁collagen	-6092
▁elmhurst	-6093
▁especial	-6094
▁ethiopia	-6095
▁european	-6096
▁everyday	-6097
▁fiorello	-6098
▁fiorucci	-6099
▁focaccia	-6100
▁function	-6101
▁garelick	-6102
▁giovanni	-6103
▁glorybee	-6104
▁hazlenut	-6105
▁heirloom	-6106
▁immunity	-6107
▁infusion	-6108
▁jasmines	-6109
▁klements	-6110
▁lakeview	-6111
▁licorice	-6112
▁lockhart	-6113
▁lozenges	-6114
▁magnolia	-6115
▁mariposa	-6116
▁marzetti	-6117
▁meltaway	-6118
▁milkyway	-6119
▁nothings	-6120
▁parmalat	-6121
▁peppered	-6122
▁phillips	-6123
▁pickwick	-6124
▁piroshki	-6125
▁plantain	-6126
▁popsicle	-6127
▁portland	-6128
▁products	-6129
▁rachaels	-6130
▁servings	-6131
▁sheridan	-6132
▁sleeping	-6133
▁snappers	-6134
▁sprinkle	-6135
▁standard	-6136
▁steamers	-6137
▁taquitos	-6138
▁thompson	-6139
▁treasure	-6140
▁trubucha	-6141
▁turmeric	-6142
▁turnover	-6143
▁twinkies	-6144
▁unsalted	-6145
▁valrhona	-6146
▁wellness	-6147
▁wellsley	-6148
▁yocrunch	-6149
▁zucchini	-6150
strawberry	-6151
▁alfajores	-6152
▁appleways	-6153
▁artichoke	-6154
▁bodyarmor	-6155
▁bolthouse	-6156
▁brilliant	-6157
▁britannia	-6158
▁burlesons	-6159
▁butterfly	-6160
▁callebaut	-6161
▁carnation	-6162
▁celebrity	-6163
▁chocoalte	-6164
▁christine	-6165
▁clamshell	-6166
▁colectivo	-6167
▁compleats	-6168
▁crunchies	-6169
▁donsuemor	-6170
▁echinacea	-6171
▁elemental	-6172
▁fiberplus	-6173
▁flourless	-6174
▁greenwise	-6175
▁gummishot	-6176
▁gustafson	-6177
▁hazelnuts	-6178
▁litehouse	-6179
▁macademia	-6180
▁madelaine	-6181
▁monkfruit	-6182
▁multipack	-6183
▁shakeable	-6184
▁starburst	-6185
▁stromboli	-6186
▁toastchee	-6187
▁tropicana	-6188
▁unleashed	-6189
▁unwrapped	-6190
▁yellowfin	-6191
▁zzzpierre	-6192
▁zzzsomage	-6193
▁betterhalf	-6194
▁breakstone	-6195
▁carmalized	-6196
▁cassandras	-6197
▁cattlemens	-6198
▁condiments	-6199
▁creminelli	-6200
▁delifrance	-6201
▁elderberry	-6202
▁essentials	-6203
▁evaporated	-6204
▁florentine	-6205
▁freshology	-6206
▁friendship	-6207
▁handcooked	-6208
▁incredible	-6209
▁miniatures	-6210
▁nonpareils	-6211
▁pistachios	-6212
▁popcorners	-6213
▁portabella	-6214
▁probiotics	-6215
▁superbites	-6216
▁superdrink	-6217
▁superfruit	-6218
▁sweeteners	-6219
▁thumbprint	-6220
▁valentines	-6221
▁zzzkitchen	-6222
refrigerator	-6223
▁backcountry	-6224
▁bittersweet	-6225
▁caramelized	-6226
▁cauliflower	-6227
▁completeats	-6228
▁honeysuckle	-6229
▁physedibles	-6230
▁replacement	-6231
▁stringsters	-6232
▁stroopwafel	-6233
▁zzzhighland	-6234
▁glutenfreeda	-6235
▁kaleidoscope	-6236
▁middleswarth	-6237
▁boomchickapop	-6238
▁zzzcloverhill	-6239
▁zzzghirardelli	-6240
(4	-6241
.)	-6242
1%	-6243
93	-6244
bt	-6245
kg	-6246
mj	-6247
mr	-6248
of	-6249
si	-6250
ua	-6251
vs	-6252
ww	-6253
#45	-6254
(10	-6255
-16	-6256
.06	-6257
.07	-6258
.88	-6259
023	-6260
064	-6261
073	-6262
076	-6263
078	-6264
094	-6265
114	-6266
145	-6267
266	-6268
300	-6269
366	-6270
592	-6271
7.3	-6272
740	-6273
749	-6274
769	-6275
810	-6276
816	-6277
830	-6278
837	-6279
alt	-6280
ama	-6281
aps	-6282
asa	-6283
ase	-6284
bor	-6285
bre	-6286
brk	-6287
bub	-6288
cks	-6289
cno	-6290
col	-6291
das	-6292
dds	-6293
dyb	-6294
eed	-6295
ene	-6296
eto	-6297
fel	-6298
icz	-6299
nc	-6300
so	-6301
wc	-6302
wp	-6303
.14	-6304
.23	-6305
117	-6306
882	-6307
fsw	-6308
gry	-6309
ict	-6310
ius	-6311
jin	-6312
lat	-6313
lis	-6314
lua	-6315
mei	-6316
men	-6317
mie	-6318
mit	-6319
ouf	-6320
plu	-6321
ppr	-6322
pps	-6323
run	-6324
teb	-6325
teg	-6326
thy	-6327
tin	-6328
tlc	-6329
ubl	-6330
ues	-6331
uri	-6332
vor	-6333
wat	-6334
zyn	-6335
zze	-6336
zzy	-6337
▁4-	-6338
▁je	-6339
▁jp	-6340
▁km	-6341
▁ny	-6342
▁oc	-6343
▁og	-6344
▁ok	-6345
▁pf	-6346
▁pt	-6347
▁rb	-6348
▁wf	-6349
(1.3	-6350
/675	-6351
0017	-6352
0332	-6353
0607	-6354
4318	-6355
4936	-6356
7350	-6357
abri	-6358
ache	-6359
aded	-6360
aicz	-6361
aken	-6362
alan	-6363
amed	-6364
amic	-6365
anja	-6366
ared	-6367
asso	-6368
ater	-6369
ayan	-6370
aygo	-6371
beer	-6372
belt	-6373
brkf	-6374
brun	-6375
chan	-6376
cher	-6377
choc	-6378
dens	-6379
dera	-6380
ders	-6381
eels	-6382
eens	-6383
elds	-6384
ened	-6385
engu	-6386
erna	-6387
gang	-6388
ggin	-6389
ging	-6390
hony	-6391
ibac	-6392
intz	-6393
iore	-6394
izab	-6395
kers	-6396
lean	-6397
lime	-6398
lion	-6399
:1	-6400
.08	-6401
016	-6402
161	-6403
aya	-6404
bin	-6405
eno	-6406
erz	-6407
fed	-6408
gmo	-6409
ilo	-6410
nap	-6411
pre	-6412
stk	-6413
▁07	-6414
▁43	-6415
▁cn	-6416
▁fl	-6417
▁gh	-6418
▁hw	-6419
3951	-6420
7512	-6421
abon	-6422
ains	-6423
ales	-6424
arte	-6425
elle	-6426
ford	-6427
ghte	-6428
lava	-6429
lled	-6430
loes	-6431
long	-6432
lush	-6433
mate	-6434
meat	-6435
miah	-6436
mima	-6437
mosa	-6438
nack	-6439
nest	-6440
nish	-6441
note	-6442
ocos	-6443
olet	-6444
omin	-6445
ones	-6446
ooch	-6447
ooli	-6448
oreo	-6449
orth	-6450
osnk	-6451
oura	-6452
pals	-6453
phqr	-6454
pita	-6455
pops	-6456
rage	-6457
rasp	-6458
riss	-6459
rita	-6460
sala	-6461
shop	-6462
smic	-6463
sons	-6464
ssed	-6465
stix	-6466
teas	-6467
tega	-6468
tier	-6469
tury	-6470
ucan	-6471
ules	-6472
umex	-6473
unds	-6474
unik	-6475
unty	-6476
utoa	-6477
utto	-6478
uxed	-6479
vils	-6480
wave	-6481
wawa	-6482
wers	-6483
zuki	-6484
▁#00	-6485
▁#16	-6486
▁#66	-6487
▁#83	-6488
▁(37	-6489
▁(38	-6490
▁(41	-6491
▁(54	-6492
▁(58	-6493
▁(85	-6494
▁1.5	-6495
▁11"	-6496
▁118	-6497
▁14"	-6498
▁16"	-6499
xl	-6500
.12	-6501
.15	-6502
.16	-6503
167	-6504
906	-6505
bie	-6506
ime	-6507
olf	-6508
ric	-6509
yme	-6510
ème	-6511
▁30	-6512
alli	-6513
ioca	-6514
isoy	-6515
mano	-6516
ppys	-6517
pton	-6518
tail	-6519
tors	-6520
▁19)	-6521
▁196	-6522
▁25%	-6523
▁253	-6524
▁28)	-6525
▁302	-6526
▁319	-6527
▁333	-6528
▁40/	-6529
▁45%	-6530
▁53%	-6531
▁55)	-6532
▁55/	-6533
▁613	-6534
▁62)	-6535
▁630	-6536
▁700	-6537
▁718	-6538
▁781	-6539
▁9+1	-6540
▁908	-6541
▁977	-6542
▁abb	-6543
▁air	-6544
▁any	-6545
▁ate	-6546
▁bai	-6547
▁bey	-6548
▁bio	-6549
▁bod	-6550
▁bud	-6551
▁but	-6552
▁crk	-6553
▁cwc	-6554
▁dal	-6555
▁dis	-6556
▁dre	-6557
▁dyn	-6558
▁far	-6559
▁fle	-6560
▁fsi	-6561
▁fub	-6562
▁gat	-6563
▁gav	-6564
▁hlf	-6565
▁hoo	-6566
▁icy	-6567
▁iii	-6568
▁ins	-6569
▁ito	-6570
▁jax	-6571
▁jaz	-6572
▁jic	-6573
▁jjs	-6574
▁kah	-6575
▁kne	-6576
▁kou	-6577
▁lie	-6578
▁luv	-6579
▁mcc	-6580
▁mes	-6581
▁mis	-6582
▁mlh	-6583
▁nad	-6584
▁nae	-6585
▁nip	-6586
▁nog	-6587
▁pea	-6588
▁pil	-6589
▁pit	-6590
▁pjs	-6591
▁poo	-6592
▁rep	-6593
▁rtd	-6594
▁sab	-6595
▁saf	-6596
▁sem	-6597
▁sut	-6598
▁tar	-6599
.05	-6600
.98	-6601
071	-6602
bot	-6603
mac	-6604
snk	-6605
ssv	-6606
▁zo	-6607
(6.5	-6608
alia	-6609
ardi	-6610
atos	-6611
cton	-6612
hard	-6613
nier	-6614
ssal	-6615
yard	-6616
zcla	-6617
▁65%	-6618
▁ahi	-6619
▁gor	-6620
▁lus	-6621
▁tnt	-6622
▁uni	-6623
▁was	-6624
▁wel	-6625
▁wet	-6626
▁wth	-6627
▁yan	-6628
▁yis	-6629
▁yum	-6630
▁yup	-6631
10065	-6632
21201	-6633
adrat	-6634
afina	-6635
angos	-6636
anino	-6637
ansen	-6638
apops	-6639
apsli	-6640
ardee	-6641
aster	-6642
ating	-6643
ative	-6644
atoni	-6645
ayday	-6646
ayzyn	-6647
azing	-6648
bacon	-6649
bakes	-6650
bbins	-6651
board	-6652
brunn	-6653
bubly	-6654
chata	-6655
clean	-6656
conut	-6657
crust	-6658
dybug	-6659
elers	-6660
ensed	-6661
ersey	-6662
erves	-6663
ester	-6664
fredd	-6665
fresh	-6666
garia	-6667
gship	-6668
hubar	-6669
ibean	-6670
ickin	-6671
kolat	-6672
lated	-6673
leine	-6674
loria	-6675
matic	-6676
milky	-6677
minis	-6678
mores	-6679
mover	-6680
nival	-6681
notts	-6682
ocity	-6683
okies	-6684
onial	-6685
orbet	-6686
ought	-6687
plant	-6688
proof	-6689
ranch	-6690
renze	-6691
ritas	-6692
rocks	-6693
roles	-6694
snack	-6695
sugar	-6696
teddy	-6697
tedge	-6698
terie	-6699
85	-6700
035	-6701
045	-6702
05)	-6703
051	-6704
123	-6705
itz	-6706
mix	-6707
nie	-6708
▁#3	-6709
▁54	-6710
▁62	-6711
▁80	-6712
▁94	-6713
ablu	-6714
boro	-6715
cfcr	-6716
chas	-6717
eria	-6718
isps	-6719
ldin	-6720
mart	-6721
omen	-6722
ritz	-6723
weet	-6724
▁kur	-6725
▁lyn	-6726
chaer	-6727
chaun	-6728
eller	-6729
isins	-6730
swiss	-6731
thurs	-6732
ublic	-6733
uchan	-6734
ugina	-6735
ulina	-6736
uline	-6737
union	-6738
visto	-6739
wheel	-6740
zzers	-6741
▁#101	-6742
▁#118	-6743
▁#134	-6744
▁#204	-6745
▁#206	-6746
▁#408	-6747
▁#703	-6748
▁(.07	-6749
▁(.09	-6750
▁(.13	-6751
▁(.14	-6752
▁(.27	-6753
▁(.33	-6754
▁(.34	-6755
▁(.49	-6756
▁(.55	-6757
▁(105	-6758
▁(120	-6759
▁(140	-6760
▁(400	-6761
▁(9",	-6762
▁0125	-6763
▁0278	-6764
▁0500	-6765
▁1.5%	-6766
▁1028	-6767
▁1038	-6768
▁1122	-6769
▁1149	-6770
▁1173	-6771
▁1307	-6772
▁1403	-6773
▁1541	-6774
▁1576	-6775
▁1966	-6776
▁2014	-6777
▁2082	-6778
▁240)	-6779
▁300)	-6780
▁3026	-6781
▁3039	-6782
▁3041	-6783
▁3102	-6784
▁320)	-6785
▁4002	-6786
▁4508	-6787
▁480)	-6788
▁5218	-6789
▁8003	-6790
▁8050	-6791
▁9026	-6792
▁9732	-6793
▁abes	-6794
▁amar	-6795
▁argo	-6796
▁bags	-6797
▁bals	-6798
▁bash	-6799
-12	-6800
302	-6801
att	-6802
▁iv	-6803
asse	-6804
auce	-6805
cium	-6806
dies	-6807
edom	-6808
enty	-6809
ient	-6810
itan	-6811
rano	-6812
reta	-6813
shen	-6814
▁#18	-6815
▁301	-6816
▁425	-6817
▁66%	-6818
▁937	-6819
▁dlx	-6820
▁fab	-6821
▁rio	-6822
▁tao	-6823
iders	-6824
loumi	-6825
ozero	-6826
tonys	-6827
udite	-6828
watts	-6829
▁(.86	-6830
▁1002	-6831
▁1574	-6832
▁andy	-6833
▁bevs	-6834
▁boli	-6835
▁bonk	-6836
▁botr	-6837
▁bulb	-6838
▁buns	-6839
▁buss	-6840
▁caco	-6841
▁cage	-6842
▁cant	-6843
▁caps	-6844
▁care	-6845
▁carr	-6846
▁cels	-6847
▁code	-6848
▁crkr	-6849
▁dash	-6850
▁date	-6851
▁dawn	-6852
▁dela	-6853
▁dipp	-6854
▁dome	-6855
▁duck	-6856
▁ease	-6857
▁elix	-6858
▁elma	-6859
▁face	-6860
▁fala	-6861
▁fred	-6862
▁fris	-6863
▁frqr	-6864
▁fuji	-6865
▁fury	-6866
▁gale	-6867
▁gluc	-6868
▁gras	-6869
▁guts	-6870
▁haas	-6871
▁haze	-6872
▁hogg	-6873
▁imei	-6874
▁indi	-6875
▁init	-6876
▁izze	-6877
▁jere	-6878
▁juan	-6879
▁jura	-6880
▁kake	-6881
▁kali	-6882
▁keen	-6883
▁kits	-6884
▁klar	-6885
▁koke	-6886
▁koru	-6887
▁lala	-6888
▁luvo	-6889
▁mach	-6890
▁make	-6891
▁malk	-6892
▁mall	-6893
▁mask	-6894
▁maui	-6895
▁maya	-6896
▁mess	-6897
▁ming	-6898
▁morn	-6899
058	-6900
083	-6901
103	-6902
fla	-6903
sea	-6904
▁91	-6905
enna	-6906
tess	-6907
▁305	-6908
▁504	-6909
▁706	-6910
▁ucc	-6911
flake	-6912
ilian	-6913
miere	-6914
▁1565	-6915
▁chop	-6916
▁door	-6917
▁mozz	-6918
▁muff	-6919
▁nerd	-6920
▁nips	-6921
▁nutz	-6922
▁only	-6923
▁panc	-6924
▁pepp	-6925
▁pier	-6926
▁pina	-6927
▁pizz	-6928
▁plum	-6929
▁pour	-6930
▁puck	-6931
▁pull	-6932
▁pulp	-6933
▁rbgh	-6934
▁rese	-6935
▁rest	-6936
▁rhmj	-6937
▁rind	-6938
▁riot	-6939
▁roka	-6940
▁rold	-6941
▁roth	-6942
▁rudi	-6943
▁ruff	-6944
▁rule	-6945
▁rumi	-6946
▁sach	-6947
▁scal	-6948
▁scoo	-6949
▁sell	-6950
▁show	-6951
▁sitt	-6952
▁skin	-6953
▁slam	-6954
▁slap	-6955
▁smmr	-6956
▁some	-6957
▁sons	-6958
▁soom	-6959
▁sort	-6960
▁spir	-6961
▁stir	-6962
▁subs	-6963
▁suja	-6964
▁symp	-6965
▁tabs	-6966
▁talk	-6967
▁tazo	-6968
▁tech	-6969
▁temp	-6970
▁tfsw	-6971
▁than	-6972
▁thaw	-6973
▁ther	-6974
▁tiel	-6975
▁time	-6976
▁timo	-6977
▁touf	-6978
▁tram	-6979
▁trav	-6980
▁ugly	-6981
▁unfi	-6982
▁verb	-6983
▁wand	-6984
▁watz	-6985
▁webt	-6986
▁wolf	-6987
▁word	-6988
▁xoxo	-6989
▁xtra	-6990
▁xxxl	-6991
▁yami	-6992
▁year	-6993
▁your	-6994
▁zola	-6995
▁zzzj	-6996
▁zzzl	-6997
▁zzzn	-6998
000607	-6999
100709	-7000
212004	-7001
abello	-7002
akerie	-7003
alable	-7004
aloupe	-7005
animal	-7006
armint	-7007
aschen	-7008
binado	-7009
bottle	-7010
brkfst	-7011
charge	-7012
ciutto	-7013
cougar	-7014
cuiter	-7015
cuitto	-7016
double	-7017
essman	-7018
freddi	-7019
garita	-7020
graham	-7021
health	-7022
iresqu	-7023
issini	-7024
isture	-7025
itchel	-7026
itters	-7027
nessee	-7028
nyside	-7029
picnic	-7030
quaker	-7031
raisin	-7032
rellas	-7033
rounds	-7034
salami	-7035
spired	-7036
sworth	-7037
tebook	-7038
tegory	-7039
terial	-7040
ternal	-7041
uffins	-7042
utions	-7043
uxedos	-7044
vation	-7045
vision	-7046
▁#1438	-7047
▁#1443	-7048
▁#2266	-7049
▁#4512	-7050
▁(.375	-7051
▁(1.01	-7052
▁(1.28	-7053
▁(1.36	-7054
▁(1.51	-7055
▁(1.84	-7056
▁(1.95	-7057
▁(1.97	-7058
▁(11.4	-7059
▁(11.9	-7060
▁(12.1	-7061
▁(12.2	-7062
▁(12.6	-7063
▁(13.3	-7064
▁(13.4	-7065
▁(14.3	-7066
▁(15.3	-7067
▁(15.6	-7068
▁(15.7	-7069
▁(16.1	-7070
▁(16.7	-7071
▁(17.6	-7072
▁(19.5	-7073
▁(2.08	-7074
▁(2.18	-7075
▁(2.26	-7076
▁(2.34	-7077
▁(2.45	-7078
▁(2.52	-7079
▁(2.53	-7080
▁(2.55	-7081
▁(21.3	-7082
▁(22.5	-7083
▁(23.3	-7084
▁(26.3	-7085
▁(26.5	-7086
▁(28.5	-7087
▁(28.8	-7088
▁(3.06	-7089
▁(3.63	-7090
▁(3.66	-7091
▁(3.81	-7092
▁(3.92	-7093
▁(3.94	-7094
▁(4.06	-7095
▁(4.08	-7096
▁(4.09	-7097
▁(4.41	-7098
▁(4.55	-7099
▁(4.56	-7100
▁(4.65	-7101
▁(4.69	-7102
▁(4.83	-7103
▁(4.93	-7104
▁(5.04	-7105
▁(5.15	-7106
▁(5.16	-7107
▁(5.26	-7108
▁(5.33	-7109
▁(5.36	-7110
▁(5.47	-7111
▁(5.57	-7112
▁(5.84	-7113
▁(5.85	-7114
▁(5.93	-7115
▁(5.95	-7116
▁(50.7	-7117
▁(6.13	-7118
▁(6.53	-7119
▁(6.62	-7120
▁(6.63	-7121
▁(6.67	-7122
▁(6.77	-7123
▁(6.92	-7124
▁(6.96	-7125
▁(7.05	-7126
▁(7.09	-7127
▁(7.16	-7128
▁(7.45	-7129
▁(7.65	-7130
▁(7.76	-7131
▁(8.04	-7132
▁(8.09	-7133
▁(8.10	-7134
▁(8.15	-7135
▁(8.18	-7136
▁(8.46	-7137
▁(8.53	-7138
▁(8.63	-7139
▁(8.65	-7140
▁(8.72	-7141
▁(8.83	-7142
▁(8.96	-7143
▁(87.3	-7144
▁(9.35	-7145
▁17350	-7146
▁21026	-7147
▁21037	-7148
▁55/65	-7149
▁63749	-7150
▁65011	-7151
▁94936	-7152
▁adder	-7153
▁advan	-7154
▁agave	-7155
▁aioli	-7156
▁alert	-7157
▁allig	-7158
▁andes	-7159
▁aroma	-7160
▁ballz	-7161
▁beach	-7162
▁bells	-7163
▁below	-7164
▁bings	-7165
▁blush	-7166
▁boars	-7167
▁bosco	-7168
▁brite	-7169
▁bueno	-7170
▁cabot	-7171
▁caper	-7172
▁chris	-7173
▁clear	-7174
▁cling	-7175
▁coast	-7176
▁coney	-7177
▁cotto	-7178
▁couch	-7179
▁craft	-7180
▁crock	-7181
▁crème	-7182
▁cubed	-7183
▁curry	-7184
▁dalci	-7185
▁demit	-7186
▁detre	-7187
▁diana	-7188
▁dipsy	-7189
▁domin	-7190
▁dukes	-7191
▁earls	-7192
▁early	-7193
▁fatty	-7194
▁faygo	-7195
▁figgy	-7196
▁franz	-7197
▁frbur	-7198
▁gabri	-7199
▁gener	-7200
▁gifts	-7201
▁glace	-7202
▁globe	-7203
▁goody	-7204
▁grade	-7205
▁grits	-7206
▁harry	-7207
▁hatch	-7208
▁hondo	-7209
▁hunks	-7210
▁hunts	-7211
▁hydro	-7212
▁india	-7213
▁inkos	-7214
▁jenis	-7215
▁jenny	-7216
▁jooli	-7217
▁josnk	-7218
▁juicy	-7219
▁jumex	-7220
▁kakes	-7221
▁kasia	-7222
▁kemps	-7223
▁koala	-7224
▁korny	-7225
▁kreme	-7226
▁kunik	-7227
▁kutoa	-7228
▁lacas	-7229
▁langa	-7230
▁lepre	-7231
▁libre	-7232
▁liege	-7233
▁lotte	-7234
▁mardi	-7235
▁marys	-7236
▁medal	-7237
▁mello	-7238
▁melts	-7239
▁mitch	-7240
▁night	-7241
▁nooma	-7242
▁octon	-7243
▁okami	-7244
▁pengu	-7245
▁phase	-7246
▁pocos	-7247
▁poura	-7248
▁reese	-7249
▁route	-7250
▁ruled	-7251
▁saags	-7252
▁schne	-7253
▁scoop	-7254
▁sever	-7255
▁shell	-7256
▁shots	-7257
▁shott	-7258
▁siggi	-7259
▁stack	-7260
▁steel	-7261
▁store	-7262
▁strip	-7263
▁suite	-7264
▁tajin	-7265
▁tango	-7266
▁teras	-7267
▁thigh	-7268
▁third	-7269
▁tiles	-7270
▁tinos	-7271
▁todds	-7272
▁torie	-7273
▁union	-7274
▁vikos	-7275
▁wagon	-7276
▁wally	-7277
▁whips	-7278
▁wildf	-7279
▁yasso	-7280
▁zzzat	-7281
1007210	-7282
adamian	-7283
broiled	-7284
chaerer	-7285
cuterie	-7286
dericks	-7287
dewinds	-7288
esticks	-7289
ghteous	-7290
ginseng	-7291
grained	-7292
grilled	-7293
harvest	-7294
hoppers	-7295
ilantro	-7296
itioner	-7297
izabeth	-7298
oatmeal	-7299
ornados	-7300
ppyseed	-7301
rageous	-7302
steamed	-7303
sugared	-7304
vanilla	-7305
vorones	-7306
western	-7307
▁(10.35	-7308
▁(10.65	-7309
▁(13.75	-7310
▁(14.11	-7311
▁(14.71	-7312
▁(17.75	-7313
▁(3.375	-7314
▁(43.07	-7315
▁(6.375	-7316
▁(9.125	-7317
▁134318	-7318
▁acacia	-7319
▁adzuki	-7320
▁amablu	-7321
▁amalia	-7322
▁anchor	-7323
▁archer	-7324
▁awaken	-7325
▁baskin	-7326
▁beyond	-7327
▁blends	-7328
▁border	-7329
▁bounty	-7330
▁boyers	-7331
▁bubble	-7332
▁bullet	-7333
▁cabern	-7334
▁caesar	-7335
▁caldas	-7336
▁canada	-7337
▁chevre	-7338
▁chilly	-7339
▁chippy	-7340
▁chloes	-7341
▁chokis	-7342
▁circle	-7343
▁common	-7344
▁compwp	-7345
▁cooler	-7346
▁cosmic	-7347
▁cotton	-7348
▁county	-7349
▁crackl	-7350
▁cucina	-7351
▁cutlet	-7352
▁dailys	-7353
▁devils	-7354
▁divina	-7355
▁dreams	-7356
▁dreamy	-7357
▁dusted	-7358
▁dynamo	-7359
▁egbert	-7360
▁explos	-7361
▁fitaid	-7362
▁flakes	-7363
▁flamin	-7364
▁franks	-7365
▁frpita	-7366
▁gather	-7367
▁gavina	-7368
▁gensey	-7369
▁gloria	-7370
▁handle	-7371
▁hansen	-7372
▁herbed	-7373
▁howard	-7374
▁hubert	-7375
▁hungry	-7376
▁iconic	-7377
▁jazmin	-7378
▁jemima	-7379
▁jersey	-7380
▁juiced	-7381
▁kahlua	-7382
▁kernel	-7383
▁kimchi	-7384
▁kimmie	-7385
▁kneads	-7386
▁kosmic	-7387
▁krispy	-7388
▁laceys	-7389
▁ladera	-7390
▁layers	-7391
▁letter	-7392
▁loreta	-7393
▁ludens	-7394
▁mangos	-7395
▁manuka	-7396
▁marian	-7397
▁marias	-7398
▁marion	-7399
▁marlos	-7400
▁mashed	-7401
▁mccann	-7402
▁merced	-7403
▁mezcla	-7404
▁mimosa	-7405
▁minute	-7406
▁nachos	-7407
▁napsli	-7408
▁narino	-7409
▁nookie	-7410
▁nordic	-7411
▁orchid	-7412
▁ortega	-7413
▁packed	-7414
▁panino	-7415
▁peatos	-7416
▁person	-7417
▁peters	-7418
▁pickle	-7419
▁polish	-7420
▁primal	-7421
▁puffed	-7422
▁purina	-7423
▁queens	-7424
▁raging	-7425
▁raison	-7426
▁relief	-7427
▁rhubar	-7428
▁riblet	-7429
▁rocket	-7430
▁rolled	-7431
▁roller	-7432
▁romano	-7433
▁safety	-7434
▁salame	-7435
▁santas	-7436
▁sauers	-7437
▁sberry	-7438
▁seajoy	-7439
▁seared	-7440
▁shapes	-7441
▁shires	-7442
▁sinton	-7443
▁skippy	-7444
▁smokin	-7445
▁snapps	-7446
▁sorbet	-7447
▁southe	-7448
▁spiced	-7449
▁splitz	-7450
▁sticky	-7451
▁straus	-7452
▁subbie	-7453
▁suebee	-7454
▁tablet	-7455
▁taipan	-7456
▁thinly	-7457
▁topped	-7458
▁tossed	-7459
▁toucan	-7460
▁twenty	-7461
▁varies	-7462
▁vienna	-7463
▁violet	-7464
▁vosges	-7465
▁voskos	-7466
▁wasabi	-7467
▁welchs	-7468
▁wheels	-7469
▁whisps	-7470
▁whites	-7471
▁wilbur	-7472
▁wyldin	-7473
adratini	-7474
cuiterie	-7475
liscious	-7476
pressata	-7477
standing	-7478
utternut	-7479
▁amazing	-7480
▁antibac	-7481
▁arthurs	-7482
▁atelier	-7483
▁baklava	-7484
▁beelers	-7485
▁booster	-7486
▁breasts	-7487
▁bruetta	-7488
▁busseto	-7489
▁buzzito	-7490
▁cakerie	-7491
▁calcium	-7492
▁captain	-7493
▁cascade	-7494
▁cassava	-7495
▁celsius	-7496
▁centric	-7497
▁century	-7498
▁charged	-7499
▁chester	-7500
▁clement	-7501
▁conchas	-7502
▁contain	-7503
▁coopers	-7504
▁crackle	-7505
▁cretors	-7506
▁crudite	-7507
▁currant	-7508
▁dairies	-7509
▁doubles	-7510
▁earnest	-7511
▁ecolier	-7512
▁equator	-7513
▁eternal	-7514
▁falafel	-7515
▁ferrara	-7516
▁festive	-7517
▁firenze	-7518
▁flowers	-7519
▁flutter	-7520
▁foaming	-7521
▁freedom	-7522
▁fromage	-7523
▁frslbme	-7524
▁frslbmg	-7525
▁frslbsr	-7526
▁galette	-7527
▁galinas	-7528
▁garnier	-7529
▁garnish	-7530
▁genisoy	-7531
▁gerhard	-7532
▁gingers	-7533
▁hampton	-7534
▁joyfuls	-7535
▁kernels	-7536
▁keynote	-7537
▁ladybug	-7538
▁lifeway	-7539
▁menthol	-7540
▁message	-7541
▁michler	-7542
▁mozaicz	-7543
▁nadlers	-7544
▁naranja	-7545
▁nibbles	-7546
▁nunshen	-7547
▁organix	-7548
▁peachie	-7549
▁puffins	-7550
▁quiches	-7551
▁recover	-7552
▁refresh	-7553
▁remover	-7554
▁renewal	-7555
▁reunion	-7556
▁robbins	-7557
▁rolling	-7558
▁ruffles	-7559
▁rumiano	-7560
▁russian	-7561
▁sabines	-7562
▁sachets	-7563
▁sammich	-7564
▁sampaka	-7565
▁seasalt	-7566
▁seedbar	-7567
▁selects	-7568
▁sitting	-7569
▁skillet	-7570
▁smokies	-7571
▁stellar	-7572
▁subject	-7573
▁sunbelt	-7574
▁sunrich	-7575
▁sutlers	-7576
▁tapioca	-7577
▁teavana	-7578
▁thought	-7579
▁timothy	-7580
▁toaster	-7581
▁tornado	-7582
▁totinos	-7583
▁tuxedos	-7584
▁uncrust	-7585
▁upstate	-7586
▁walkers	-7587
▁walmart	-7588
▁xxlarge	-7589
▁zingers	-7590
▁zzzboom	-7591
▁zzzdole	-7592
▁zzzfive	-7593
▁zzzlays	-7594
▁zzzwawa	-7595
iresquare	-7596
▁amaretto	-7597
▁aquafina	-7598
▁armanino	-7599
▁ashapops	-7600
▁backyard	-7601
▁balsamic	-7602
▁barritas	-7603
▁belfiore	-7604
▁bellezza	-7605
▁blackout	-7606
▁blenders	-7607
▁blissful	-7608
▁boomtown	-7609
▁botrista	-7610
▁boyardee	-7611
▁capsules	-7612
▁captains	-7613
▁carnival	-7614
▁category	-7615
▁chessman	-7616
▁chippers	-7617
▁chocoate	-7618
▁chokolat	-7619
▁cilantro	-7620
▁cinnabon	-7621
▁colonial	-7622
▁colorful	-7623
▁colossal	-7624
▁columbus	-7625
▁craisins	-7626
▁creative	-7627
▁eggplant	-7628
▁electric	-7629
▁enhanced	-7630
▁evolving	-7631
▁fermiere	-7632
▁flagship	-7633
▁flapjack	-7634
▁friskies	-7635
▁fruities	-7636
▁gabriels	-7637
▁glucerna	-7638
▁gopicnic	-7639
▁grassfed	-7640
▁grillers	-7641
▁grissini	-7642
▁halfpops	-7643
▁halloumi	-7644
▁horchata	-7645
▁inspired	-7646
▁jacksons	-7647
▁jeremiah	-7648
▁kidfresh	-7649
▁kingston	-7650
▁lakeland	-7651
▁luscious	-7652
▁marinade	-7653
▁maruchan	-7654
▁meatless	-7655
▁moisture	-7656
▁national	-7657
▁notebook	-7658
▁octonuts	-7659
▁pancakes	-7660
▁papettis	-7661
▁pastitas	-7662
▁perugina	-7663
▁portions	-7664
▁precious	-7665
▁previsto	-7666
▁promised	-7667
▁recharge	-7668
▁republic	-7669
▁rigatoni	-7670
▁rootbeer	-7671
▁rossmoor	-7672
▁sangaria	-7673
▁scallion	-7674
▁schaerer	-7675
▁sensible	-7676
▁shavings	-7677
▁skinless	-7678
▁skipjack	-7679
▁skittles	-7680
▁snackers	-7681
▁snowball	-7682
▁stufferz	-7683
▁switchel	-7684
▁symphony	-7685
▁teazzers	-7686
▁toufayan	-7687
▁unleaded	-7688
▁unsmoked	-7689
▁velocity	-7690
▁wildwood	-7691
▁wolfgang	-7692
▁zzzcream	-7693
▁zzzkashi	-7694
▁zzzkraft	-7695
▁zzzmiami	-7696
▁zzztonys	-7697
▁alligator	-7698
▁barebells	-7699
▁blackened	-7700
▁bombsicle	-7701
▁canelitas	-7702
▁carabello	-7703
▁chamomile	-7704
▁chocolaty	-7705
▁chromatic	-7706
▁compfruit	-7707
▁condensed	-7708
▁cornbread	-7709
▁crunchers	-7710
▁dairymens	-7711
▁demitasse	-7712
▁dickinson	-7713
▁dominican	-7714
▁drinkable	-7715
▁drumstick	-7716
▁elizabeth	-7717
▁ellsworth	-7718
▁essential	-7719
▁everclean	-7720
▁farmhouse	-7721
▁frankford	-7722
▁hamburger	-7723
▁honeystix	-7724
▁honeywell	-7725
▁hydrating	-7726
▁kimberely	-7727
▁klarbrunn	-7728
▁kourellas	-7729
▁lactozero	-7730
▁lunchmeat	-7731
▁lunchtime	-7732
▁madeleine	-7733
▁margarita	-7734
▁marinated	-7735
▁mediterra	-7736
▁microwave	-7737
▁mitchells	-7738
▁naturally	-7739
▁pirouline	-7740
▁pizzarias	-7741
▁poppyseed	-7742
▁pourables	-7743
▁prebiotic	-7744
▁preserves	-7745
▁raisinets	-7746
▁regrained	-7747
▁righteous	-7748
▁seventeas	-7749
▁snapstick	-7750
▁snowflake	-7751
▁solutions	-7752
▁spearmint	-7753
▁spirulina	-7754
▁sunnyside	-7755
▁surrounds	-7756
▁sweetener	-7757
▁sweetleaf	-7758
▁tennessee	-7759
▁traveller	-7760
▁turbinado	-7761
▁vendibean	-7762
▁zzzcougar	-7763
▁zzzgloria	-7764
▁zzznature	-7765
▁zzzquaker	-7766
dericksburg	-7767
teddygraham	-7768
▁#100000607	-7769
▁advantedge	-7770
▁applesauce	-7771
▁cantaloupe	-7772
▁chocoloney	-7773
▁chocorocks	-7774
▁chocoroles	-7775
▁decorating	-7776
▁generation	-7777
▁gingersnap	-7778
▁ginnybakes	-7779
▁ginnyminis	-7780
▁greenhouse	-7781
▁hashbrowns	-7782
▁jooliettes	-7783
▁lemoncello	-7784
▁leprechaun	-7785
▁lunchables	-7786
▁macadamian	-7787
▁mangosteen	-7788
▁marianitas	-7789
▁milkadamia	-7790
▁multiplier	-7791
▁passionate	-7792
▁peachfield	-7793
▁peppercorn	-7794
▁polvorones	-7795
▁pomegrante	-7796
▁prosciutto	-7797
▁proscuitto	-7798
▁quadratini	-7799
▁queensboro	-7800
▁refreshers	-7801
▁resealable	-7802
▁schneiders	-7803
▁semifreddi	-7804
▁sensations	-7805
▁shinewater	-7806
▁skinnygirl	-7807
▁snacksters	-7808
▁sopressata	-7809
▁spreadable	-7810
▁tradewinds	-7811
▁vegetarian	-7812
▁washington	-7813
▁webtrition	-7814
▁zzzatlasta	-7815
▁zzzkellogg	-7816
▁zzzroberts	-7817
▁authentasty	-7818
▁biscuiterie	-7819
▁bulletproof	-7820
▁cabernayzyn	-7821
▁charcuterie	-7822
▁cheeseboard	-7823
▁coconutmilk	-7824
▁conditioner	-7825
▁cottosalami	-7826
▁distributor	-7827
▁firecracker	-7828
▁kitchenmate	-7829
▁marionberry	-7830
▁multrigrain	-7831
▁outstanding	-7832
▁uncrustable	-7833
▁zzzrossmoor	-7834
▁zzztornados	-7835
▁buttercrunch	-7836
▁butterfields	-7837
▁butterfinger	-7838
▁cheesesticks	-7839
▁clairesquare	-7840
▁flamebroiled	-7841
▁southwestern	-7842
▁zzzbutternut	-7843
▁antibacterial	-7844
▁cheeseliscious	-7845
▁fredericksburg	-7846
/4,	-7847
157	-7848
ccc	-7849
rdh	-7850
(.88	-7851
(4.5	-7852
(4.6	-7853
(5.1	-7854
(8.3	-7855
-046	-7856
.063	-7857
0054	-7858
0198	-7859
0293	-7860
0446	-7861
15.5	-7862
1769	-7863
1822	-7864
1997	-7865
2007	-7866
2010	-7867
3015	-7868
3027	-7869
4/48	-7870
4010	-7871
4015	-7872
4034	-7873
4810	-7874
5006	-7875
9348	-7876
akis	-7877
basa	-7878
beto	-7879
bord	-7880
ccer	-7881
fend	-7882
gnic	-7883
ikis	-7884
jccc	-7885
jcor	-7886
kacc	-7887
kkom	-7888
kran	-7889
ncia	-7890
plug	-7891
quec	-7892
solu	-7893
▁.12	-7894
▁33%	-7895
▁392	-7896
▁42%	-7897
▁422	-7898
▁5+1	-7899
(35	-7900
-40	-7901
177	-7902
1645	-7903
1779	-7904
3240	-7905
8440	-7906
play	-7907
pprf	-7908
▁467	-7909
▁51%	-7910
▁52%	-7911
▁64%	-7912
▁642	-7913
▁668	-7914
▁697	-7915
▁754	-7916
▁757	-7917
▁785	-7918
▁87%	-7919
▁88%	-7920
▁88)	-7921
▁cev	-7922
▁cyp	-7923
▁epa	-7924
▁faj	-7925
▁gnc	-7926
▁ign	-7927
▁ovi	-7928
▁ssd	-7929
▁ssm	-7930
▁wyk	-7931
#4527	-7932
#4551	-7933
(35.8	-7934
(4.66	-7935
(7.53	-7936
)(.88	-7937
04463	-7938
05210	-7939
089.3	-7940
11/48	-7941
12986	-7942
157.1	-7943
18816	-7944
32.98	-7945
36.15	-7946
58830	-7947
88830	-7948
9/675	-7949
ainst	-7950
akiso	-7951
aldos	-7952
asaur	-7953
attoo	-7954
bucol	-7955
cherl	-7956
cuado	-7957
dical	-7958
efits	-7959
eneca	-7960
eyser	-7961
grape	-7962
green	-7963
grees	-7964
ictly	-7965
idlos	-7966
ignet	-7967
ikkis	-7968
illie	-7969
iloba	-7970
inosa	-7971
isien	-7972
isimo	-7973
itute	-7974
iving	-7975
kranz	-7976
lsons	-7977
pacol	-7978
ptime	-7979
rdill	-7980
retto	-7981
roons	-7982
tinum	-7983
tizer	-7984
urier	-7985
velte	-7986
vince	-7987
zetos	-7988
▁#096	-7989
▁#182	-7990
▁#255	-7991
▁#272	-7992
▁#273	-7993
▁#577	-7994
▁#609	-7995
▁#634	-7996
▁#662	-7997
▁#663	-7998
▁#808	-7999
379	-8000
bwh	-8001
7486	-8002
8406	-8003
8410	-8004
chwe	-8005
ribs	-8006
▁349	-8007
▁437	-8008
▁449	-8009
▁72%	-8010
▁743	-8011
▁qia	-8012
alien	-8013
bwhss	-8014
douwe	-8015
guers	-8016
iscut	-8017
schwe	-8018
which	-8019
▁#379	-8020
▁#905	-8021
▁(0.5	-8022
▁(0.8	-8023
▁(1/6	-8024
▁(946	-8025
▁0115	-8026
▁0240	-8027
▁0245	-8028
▁0246	-8029
▁0285	-8030
▁0445	-8031
▁0460	-8032
▁0566	-8033
▁0626	-8034
▁0655	-8035
▁0656	-8036
▁0699	-8037
▁0810	-8038
▁0821	-8039
▁0859	-8040
▁1030	-8041
▁1035	-8042
▁1036	-8043
▁105)	-8044
▁1065	-8045
▁1067	-8046
▁1078	-8047
▁1115	-8048
▁1116	-8049
▁1119	-8050
▁1138	-8051
▁1144	-8052
▁1177	-8053
▁11:1	-8054
▁1254	-8055
▁1255	-8056
▁1268	-8057
▁1285	-8058
▁144)	-8059
▁1540	-8060
▁1543	-8061
▁1544	-8062
▁1547	-8063
▁1563	-8064
▁1947	-8065
▁2.88	-8066
▁2028	-8067
▁2034	-8068
▁2046	-8069
▁205)	-8070
▁2052	-8071
▁2055	-8072
▁2056	-8073
▁2085	-8074
▁2086	-8075
▁2120	-8076
▁2145	-8077
▁2223	-8078
▁2491	-8079
▁2500	-8080
▁2502	-8081
▁2511	-8082
▁2512	-8083
▁252)	-8084
▁2531	-8085
▁2534	-8086
▁2592	-8087
▁2626	-8088
▁2780	-8089
▁2787	-8090
▁2824	-8091
▁2833	-8092
▁2835	-8093
▁2977	-8094
▁3/4,	-8095
▁3003	-8096
▁3005	-8097
▁3011	-8098
▁3032	-8099
282	-8100
417	-8101
0284	-8102
0334	-8103
7428	-8104
fros	-8105
voer	-8106
▁#34	-8107
▁628	-8108
▁641	-8109
▁689	-8110
▁71%	-8111
▁pbj	-8112
▁rtl	-8113
10028	-8114
addar	-8115
aroon	-8116
froma	-8117
nvoer	-8118
wurst	-8119
▁#241	-8120
▁#289	-8121
▁0280	-8122
▁0425	-8123
▁0450	-8124
▁0475	-8125
▁0480	-8126
▁1280	-8127
▁1884	-8128
▁2928	-8129
▁2951	-8130
▁2974	-8131
▁2980	-8132
▁2984	-8133
▁3044	-8134
▁3046	-8135
▁3067	-8136
▁3091	-8137
▁3120	-8138
▁3122	-8139
▁3124	-8140
▁3134	-8141
▁3135	-8142
▁3136	-8143
▁3140	-8144
▁3145	-8145
▁3146	-8146
▁3148	-8147
▁3164	-8148
▁3166	-8149
▁3186	-8150
▁3191	-8151
▁3217	-8152
▁3237	-8153
▁3240	-8154
▁3255	-8155
▁3257	-8156
▁3293	-8157
▁3315	-8158
▁3319	-8159
▁3321	-8160
▁3327	-8161
▁3333	-8162
▁3430	-8163
▁35:1	-8164
▁3617	-8165
▁3649	-8166
▁3740	-8167
▁4017	-8168
▁4018	-8169
▁4026	-8170
▁4055	-8171
▁4056	-8172
▁4060	-8173
▁4062	-8174
▁4065	-8175
▁4535	-8176
▁4804	-8177
▁5030	-8178
▁5034	-8179
▁5042	-8180
▁5044	-8181
▁5103	-8182
▁5313	-8183
▁5413	-8184
▁6003	-8185
▁6201	-8186
▁6210	-8187
▁6541	-8188
▁6542	-8189
▁6586	-8190
▁6906	-8191
▁7007	-8192
▁7060	-8193
▁7072	-8194
▁7089	-8195
▁7102	-8196
▁7103	-8197
▁7114	-8198
▁7129	-8199
324	-8200
328	-8201
390	-8202
391	-8203
392	-8204
587	-8205
724	-8206
772	-8207
-16-	-8208
3981	-8209
52.1	-8210
8919	-8211
▁752	-8212
▁756	-8213
▁758	-8214
▁939	-8215
03740	-8216
14392	-8217
48772	-8218
▁#197	-8219
▁#324	-8220
▁#572	-8221
▁(0.4	-8222
▁0102	-8223
▁0127	-8224
▁1172	-8225
▁1256	-8226
▁1413	-8227
▁1724	-8228
▁192)	-8229
▁1925	-8230
▁1971	-8231
▁1972	-8232
▁1983	-8233
▁2010	-8234
▁2012	-8235
▁2013	-8236
▁2156	-8237
▁2831	-8238
▁3101	-8239
▁3108	-8240
▁3197	-8241
▁4000	-8242
▁4005	-8243
▁7161	-8244
▁7188	-8245
▁7312	-8246
▁7327	-8247
▁7328	-8248
▁7362	-8249
▁7366	-8250
▁7402	-8251
▁7409	-8252
▁7410	-8253
▁7417	-8254
▁7634	-8255
▁7649	-8256
▁7895	-8257
▁7897	-8258
▁7898	-8259
▁7900	-8260
▁7901	-8261
▁7909	-8262
▁7914	-8263
▁7916	-8264
▁7929	-8265
▁8000	-8266
▁8005	-8267
▁8014	-8268
▁8015	-8269
▁8034	-8270
▁8060	-8271
▁8062	-8272
▁8063	-8273
▁8064	-8274
▁8067	-8275
▁8103	-8276
▁8201	-8277
▁8306	-8278
▁8313	-8279
▁8383	-8280
▁8522	-8281
▁8707	-8282
▁8718	-8283
▁9009	-8284
▁9014	-8285
▁9018	-8286
▁9030	-8287
▁9035	-8288
▁9052	-8289
▁9053	-8290
▁9054	-8291
▁9057	-8292
▁9104	-8293
▁9107	-8294
▁9114	-8295
▁9131	-8296
▁9151	-8297
▁9152	-8298
▁9201	-8299
178	-8300
785	-8301
787	-8302
0076	-8303
1780	-8304
2016	-8305
4709	-8306
6699	-8307
gold	-8308
teaz	-8309
vara	-8310
▁654	-8311
▁676	-8312
▁751	-8313
▁938	-8314
▁98-	-8315
▁982	-8316
▁985	-8317
▁998	-8318
▁fox	-8319
13785	-8320
auara	-8321
drizz	-8322
ivara	-8323
lybag	-8324
mixed	-8325
uplex	-8326
▁#476	-8327
▁#571	-8328
▁0274	-8329
▁0275	-8330
▁0281	-8331
▁0571	-8332
▁1286	-8333
▁1376	-8334
▁1538	-8335
▁1787	-8336
▁3117	-8337
▁3119	-8338
▁3147	-8339
▁3238	-8340
▁4011	-8341
▁5571	-8342
▁6008	-8343
▁6502	-8344
▁9056	-8345
▁9305	-8346
▁9306	-8347
▁9377	-8348
▁9378	-8349
▁9423	-8350
▁9504	-8351
▁9550	-8352
▁9642	-8353
▁9647	-8354
▁9649	-8355
▁9651	-8356
▁9682	-8357
▁9689	-8358
▁9690	-8359
▁9691	-8360
▁9730	-8361
▁9731	-8362
▁9762	-8363
▁9767	-8364
▁9776	-8365
▁9782	-8366
▁9801	-8367
▁9807	-8368
▁9837	-8369
▁9854	-8370
▁9877	-8371
▁9905	-8372
▁9916	-8373
▁9917	-8374
▁9936	-8375
▁9944	-8376
▁agua	-8377
▁bioc	-8378
▁celt	-8379
▁chiu	-8380
▁cocu	-8381
▁cogo	-8382
▁dalf	-8383
▁egro	-8384
▁erac	-8385
▁esti	-8386
▁farf	-8387
▁fora	-8388
▁furi	-8389
▁garb	-8390
▁ghou	-8391
▁golf	-8392
▁hawk	-8393
▁hilo	-8394
▁hype	-8395
▁iris	-8396
▁jags	-8397
▁jama	-8398
▁joyt	-8399
290	-8400
470	-8401
920	-8402
967	-8403
991	-8404
995	-8405
1299	-8406
1996	-8407
2930	-8408
9909	-8409
9930	-8410
dile	-8411
iors	-8412
okie	-8413
vile	-8414
xury	-8415
▁#99	-8416
▁299	-8417
▁631	-8418
▁761	-8419
▁762	-8420
▁767	-8421
▁820	-8422
▁831	-8423
▁834	-8424
▁957	-8425
▁usa	-8426
05991	-8427
cooks	-8428
oledo	-8429
phant	-8430
stons	-8431
tract	-8432
▁#967	-8433
▁0505	-8434
▁0526	-8435
▁0596	-8436
▁1320	-8437
▁1520	-8438
▁2499	-8439
▁2994	-8440
▁3231	-8441
▁4520	-8442
▁4529	-8443
▁7413	-8444
▁7600	-8445
▁7602	-8446
▁9729	-8447
▁inka	-8448
▁kasi	-8449
▁klip	-8450
▁kola	-8451
▁lond	-8452
▁lyfe	-8453
▁naan	-8454
▁nekt	-8455
▁nobl	-8456
▁oboy	-8457
▁olip	-8458
▁olli	-8459
▁owls	-8460
▁papa	-8461
▁plut	-8462
▁pond	-8463
▁pony	-8464
▁priv	-8465
▁purn	-8466
▁puro	-8467
▁ratt	-8468
▁reyn	-8469
▁rods	-8470
▁rojo	-8471
▁scno	-8472
▁sinb	-8473
▁skyr	-8474
▁srdh	-8475
▁tenn	-8476
▁tile	-8477
▁truw	-8478
▁tyme	-8479
▁voke	-8480
▁worx	-8481
▁yerb	-8482
▁zoes	-8483
▁zora	-8484
(32.98	-8485
/48000	-8486
/48002	-8487
007627	-8488
033403	-8489
068440	-8490
089.36	-8491
100627	-8492
100648	-8493
107104	-8494
129920	-8495
3951.1	-8496
511/48	-8497
705210	-8498
abrita	-8499
/70	-8500
323	-8501
334	-8502
335	-8503
337	-8504
360	-8505
368	-8506
633	-8507
0248	-8508
0670	-8509
0923	-8510
1348	-8511
1770	-8512
ansk	-8513
ialy	-8514
lazo	-8515
▁336	-8516
▁58%	-8517
▁653	-8518
▁953	-8519
▁96%	-8520
▁961	-8521
▁966	-8522
▁968	-8523
▁bsn	-8524
▁hsn	-8525
02335	-8526
33700	-8527
88/70	-8528
▁#153	-8529
▁#453	-8530
▁(453	-8531
▁(570	-8532
▁0923	-8533
▁1323	-8534
▁1353	-8535
▁145)	-8536
▁1536	-8537
▁2448	-8538
▁3270	-8539
▁3623	-8540
▁9606	-8541
▁9609	-8542
▁9648	-8543
▁9681	-8544
▁alka	-8545
▁poop	-8546
-04616	-8547
100360	-8548
134867	-8549
acific	-8550
aining	-8551
alanta	-8552
anceys	-8553
ancial	-8554
andoor	-8555
astern	-8556
atomic	-8557
combos	-8558
elbasa	-8559
eltzer	-8560
ggiano	-8561
giving	-8562
golden	-8563
grainm	-8564
grapes	-8565
harney	-8566
icelle	-8567
icient	-8568
irloin	-8569
kcherl	-8570
kkoman	-8571
leaves	-8572
lemans	-8573
lights	-8574
linson	-8575
matcha	-8576
omenal	-8577
ontier	-8578
ostess	-8579
osweet	-8580
pickin	-8581
psnack	-8582
ragnic	-8583
refrig	-8584
rissas	-8585
ritzch	-8586
rizzly	-8587
snacks	-8588
tation	-8589
tinent	-8590
turkey	-8591
udsens	-8592
vencal	-8593
zellig	-8594
zidlos	-8595
zyrich	-8596
▁#0017	-8597
▁#0052	-8598
▁#0054	-8599
-30	-8600
269	-8601
359	-8602
smo	-8603
0048	-8604
3599	-8605
5269	-8606
bett	-8607
roma	-8608
▁117	-8609
▁259	-8610
▁394	-8611
▁552	-8612
▁659	-8613
▁726	-8614
▁759	-8615
▁97%	-8616
▁971	-8617
arado	-8618
ceset	-8619
ettuc	-8620
icola	-8621
smoke	-8622
▁#459	-8623
▁#534	-8624
▁(237	-8625
▁0048	-8626
▁1060	-8627
▁110)	-8628
▁1308	-8629
▁1309	-8630
▁1373	-8631
▁1530	-8632
▁2037	-8633
▁2595	-8634
▁4004	-8635
▁4528	-8636
▁5500	-8637
▁5502	-8638
▁5575	-8639
▁6004	-8640
▁6136	-8641
▁6590	-8642
▁7260	-8643
▁7918	-8644
▁9702	-8645
▁9711	-8646
▁brav	-8647
▁phen	-8648
▁yums	-8649
3599.1	-8650
5269.5	-8651
axmilk	-8652
pieces	-8653
ucrets	-8654
varado	-8655
▁#0248	-8656
▁#0601	-8657
▁#0603	-8658
▁#0605	-8659
▁#0606	-8660
▁#0870	-8661
▁#0871	-8662
▁#0872	-8663
▁#0951	-8664
▁#0964	-8665
▁#0987	-8666
▁#0996	-8667
▁#1240	-8668
▁#1265	-8669
▁#1342	-8670
▁#1376	-8671
▁#1380	-8672
▁#1382	-8673
▁#1388	-8674
▁#1391	-8675
▁#1462	-8676
▁#1466	-8677
▁#1467	-8678
▁#1576	-8679
▁#1606	-8680
▁#1707	-8681
▁#1729	-8682
▁#1742	-8683
▁#1744	-8684
▁#1848	-8685
▁#3459	-8686
▁#3951	-8687
▁#4004	-8688
▁#4019	-8689
▁#4034	-8690
▁#4061	-8691
▁#4064	-8692
▁#4073	-8693
▁#4076	-8694
▁#4131	-8695
▁#4502	-8696
▁#4529	-8697
▁#4535	-8698
▁#4550	-8699
410	-8700
0010	-8701
trol	-8702
▁710	-8703
▁910	-8704
▁rps	-8705
etals	-8706
▁(.22	-8707
▁0010	-8708
▁0299	-8709
▁1012	-8710
▁1014	-8711
▁1015	-8712
▁1018	-8713
▁1019	-8714
▁1029	-8715
▁1076	-8716
▁1133	-8717
▁2006	-8718
▁2801	-8719
▁3001	-8720
▁3601	-8721
▁3602	-8722
▁3603	-8723
▁3611	-8724
▁3613	-8725
▁3616	-8726
▁3619	-8727
▁6001	-8728
▁8001	-8729
▁9907	-8730
▁bird	-8731
▁drey	-8732
▁frdw	-8733
▁kram	-8734
▁pals	-8735
▁peps	-8736
▁ruge	-8737
▁tips	-8738
099348	-8739
achips	-8740
anolly	-8741
fusion	-8742
▁#1444	-8743
▁#4573	-8744
▁#4592	-8745
▁#4598	-8746
▁#7167	-8747
▁#9057	-8748
▁#9120	-8749
▁(.352	-8750
▁(.458	-8751
▁(0.42	-8752
▁(19.3	-8753
▁(19.4	-8754
▁(26.2	-8755
▁(27.5	-8756
▁(29.4	-8757
▁(29.5	-8758
▁(3.01	-8759
▁(3.02	-8760
▁(3.03	-8761
▁(3.71	-8762
▁(3.77	-8763
▁(3000	-8764
▁(35.5	-8765
▁(35.6	-8766
▁(36.5	-8767
▁(41.4	-8768
▁(42.5	-8769
▁(42.6	-8770
▁(44.2	-8771
▁(46.2	-8772
▁(6.06	-8773
▁(6.08	-8774
▁(6.40	-8775
▁(6.46	-8776
▁(6.49	-8777
▁(66.5	-8778
▁(67.2	-8779
▁(67.4	-8780
▁(7.02	-8781
▁(7.15	-8782
▁(7.42	-8783
▁(7.62	-8784
▁(7.63	-8785
▁(7.85	-8786
▁(70.4	-8787
▁(8.01	-8788
▁(8.06	-8789
▁(8.21	-8790
▁(8.67	-8791
▁(9.05	-8792
▁(9.14	-8793
▁(9.15	-8794
▁(9.21	-8795
▁(9.29	-8796
▁(9.39	-8797
▁(9.45	-8798
▁(9.76	-8799
744	-8800
889	-8801
cca	-8802
0020	-8803
0021	-8804
0188	-8805
1999	-8806
7744	-8807
larm	-8808
phel	-8809
ular	-8810
▁#22	-8811
▁#23	-8812
▁#24	-8813
▁#51	-8814
▁#52	-8815
▁#57	-8816
▁217	-8817
▁851	-8818
▁950	-8819
▁988	-8820
▁awe	-8821
▁awg	-8822
▁duf	-8823
▁uve	-8824
hagen	-8825
iocco	-8826
▁#205	-8827
▁#507	-8828
▁#574	-8829
▁(274	-8830
▁0600	-8831
▁0770	-8832
▁7145	-8833
▁7889	-8834
▁8500	-8835
▁8502	-8836
▁8581	-8837
▁9607	-8838
▁dads	-8839
▁dual	-8840
▁jonh	-8841
▁luau	-8842
▁mugg	-8843
▁mule	-8844
▁uvex	-8845
▁wide	-8846
784810	-8847
aniels	-8848
erocca	-8849
mellow	-8850
phelia	-8851
unreal	-8852
▁#0020	-8853
▁#2381	-8854
▁#2459	-8855
▁(2.07	-8856
▁(21.2	-8857
▁(3.67	-8858
▁(3.68	-8859
▁(40.5	-8860
▁(6.29	-8861
▁(7.32	-8862
▁(9.94	-8863
▁(9.98	-8864
▁05034	-8865
▁1/4",	-8866
▁10029	-8867
▁10033	-8868
▁10052	-8869
▁10058	-8870
▁10059	-8871
▁10067	-8872
▁10069	-8873
▁10079	-8874
▁10088	-8875
▁10089	-8876
▁10104	-8877
▁10127	-8878
▁10129	-8879
▁10131	-8880
▁10172	-8881
▁10175	-8882
▁10201	-8883
▁10206	-8884
▁10214	-8885
▁10220	-8886
▁10230	-8887
▁10280	-8888
▁10287	-8889
▁10288	-8890
▁11703	-8891
▁11730	-8892
▁11738	-8893
▁12040	-8894
▁12089	-8895
▁15683	-8896
▁18920	-8897
▁2.88"	-8898
▁20878	-8899
140	-8900
142	-8901
143	-8902
147	-8903
168	-8904
169	-8905
214	-8906
ego	-8907
kok	-8908
okr	-8909
(1.1	-8910
1913	-8911
2765	-8912
7488	-8913
aibe	-8914
bago	-8915
bead	-8916
bear	-8917
gria	-8918
▁627	-8919
▁656	-8920
▁658	-8921
▁723	-8922
▁827	-8923
▁blk	-8924
(1.13	-8925
10027	-8926
32765	-8927
along	-8928
brook	-8929
ffair	-8930
ggity	-8931
ipity	-8932
irrel	-8933
weiss	-8934
▁#173	-8935
▁(.44	-8936
▁(.47	-8937
▁1027	-8938
▁1168	-8939
▁3227	-8940
▁4500	-8941
▁4502	-8942
▁4504	-8943
▁4506	-8944
▁4507	-8945
▁4511	-8946
▁4514	-8947
▁4516	-8948
▁6140	-8949
▁7142	-8950
▁8279	-8951
▁8713	-8952
▁9051	-8953
▁9867	-8954
bearab	-8955
chetta	-8956
chiato	-8957
utista	-8958
▁#0070	-8959
▁#1071	-8960
▁#1362	-8961
▁#1731	-8962
▁#4143	-8963
▁(3.45	-8964
▁(33.4	-8965
▁(33.6	-8966
▁(33.9	-8967
▁(5.18	-8968
▁10027	-8969
▁21016	-8970
▁23004	-8971
▁23120	-8972
▁30101	-8973
▁30251	-8974
▁30261	-8975
▁30391	-8976
▁30401	-8977
▁30421	-8978
▁30531	-8979
▁30611	-8980
▁30701	-8981
▁30771	-8982
▁30791	-8983
▁30901	-8984
▁30951	-8985
▁30961	-8986
▁31051	-8987
▁31061	-8988
▁31071	-8989
▁31100	-8990
▁31129	-8991
▁31131	-8992
▁31167	-8993
▁31169	-8994
▁31180	-8995
▁31181	-8996
▁31182	-8997
▁31190	-8998
▁31194	-8999
194	-9000
24-	-9001
pha	-9002
1806	-9003
1809	-9004
24-5	-9005
bits	-9006
nola	-9007
▁418	-9008
▁75)	-9009
▁947	-9010
▁983	-9011
▁buy	-9012
▁kha	-9013
alpha	-9014
ulips	-9015
▁#183	-9016
▁(0.6	-9017
▁1194	-9018
▁155)	-9019
▁1943	-9020
▁3219	-9021
▁8583	-9022
▁rubb	-9023
▁tong	-9024
▁treo	-9025
24-500	-9026
anaban	-9027
idbits	-9028
illion	-9029
irvana	-9030
penden	-9031
verboy	-9032
▁(0.67	-9033
▁(21.5	-9034
▁(30.1	-9035
▁(6.14	-9036
▁(7.04	-9037
▁10087	-9038
▁10233	-9039
▁30091	-9040
▁31207	-9041
▁32-40	-9042
▁33622	-9043
▁38406	-9044
▁39119	-9045
▁39265	-9046
▁40011	-9047
▁40027	-9048
▁40030	-9049
▁41853	-9050
▁42000	-9051
▁42120	-9052
▁43061	-9053
▁45131	-9054
▁48119	-9055
▁50003	-9056
▁50011	-9057
▁50012	-9058
▁50016	-9059
▁50078	-9060
▁50107	-9061
▁50109	-9062
▁50127	-9063
▁50147	-9064
▁50165	-9065
▁50169	-9066
▁50957	-9067
▁52003	-9068
▁52008	-9069
▁52011	-9070
▁52187	-9071
▁52189	-9072
▁54136	-9073
▁55014	-9074
▁55021	-9075
▁58100	-9076
▁58802	-9077
▁58803	-9078
▁58804	-9079
▁58807	-9080
▁58808	-9081
▁58811	-9082
▁60001	-9083
▁60003	-9084
▁60004	-9085
▁60011	-9086
▁60020	-9087
▁60026	-9088
▁63005	-9089
▁63981	-9090
▁64002	-9091
▁65007	-9092
▁65018	-9093
▁65024	-9094
▁65026	-9095
▁66302	-9096
▁67486	-9097
▁68410	-9098
▁70009	-9099
781	-9100
ibe	-9101
lva	-9102
tih	-9103
uva	-9104
5953	-9105
81.2	-9106
beef	-9107
born	-9108
claw	-9109
foot	-9110
ixby	-9111
ixie	-9112
jorn	-9113
klva	-9114
nita	-9115
▁581	-9116
▁681	-9117
▁ups	-9118
belly	-9119
eluva	-9120
erbee	-9121
erita	-9122
ffees	-9123
fured	-9124
jorns	-9125
raffe	-9126
▁#181	-9127
▁#401	-9128
▁#402	-9129
▁(280	-9130
▁1161	-9131
▁1531	-9132
▁2781	-9133
▁3222	-9134
▁7015	-9135
▁8011	-9136
▁9943	-9137
▁born	-9138
▁brim	-9139
▁eddy	-9140
▁jerf	-9141
▁jpno	-9142
▁ocho	-9143
▁paja	-9144
▁ravo	-9145
▁samb	-9146
▁vibe	-9147
▁wtih	-9148
choice	-9149
leslaw	-9150
▁#1370	-9151
▁(22.7	-9152
▁(28.9	-9153
▁(5.46	-9154
▁(5.68	-9155
▁(5.71	-9156
▁35953	-9157
▁58104	-9158
▁71010	-9159
▁71031	-9160
▁71040	-9161
▁71041	-9162
▁71046	-9163
▁77488	-9164
▁80676	-9165
▁83427	-9166
▁85804	-9167
▁85806	-9168
▁85812	-9169
▁85813	-9170
▁85816	-9171
▁85817	-9172
▁85834	-9173
▁85857	-9174
▁85858	-9175
▁85859	-9176
▁90705	-9177
▁90709	-9178
▁91822	-9179
▁94239	-9180
▁after	-9181
▁alarm	-9182
▁aloev	-9183
▁alpha	-9184
▁ancho	-9185
▁angel	-9186
▁antio	-9187
▁babka	-9188
▁billy	-9189
▁birch	-9190
▁bixby	-9191
▁bklva	-9192
▁blanc	-9193
▁blitz	-9194
▁bloom	-9195
▁bodac	-9196
▁bodum	-9197
▁bolds	-9198
▁brais	-9199
13)	-9200
0013	-9201
deav	-9202
dele	-9203
ikoo	-9204
more	-9205
uras	-9206
▁#30	-9207
▁713	-9208
amame	-9209
fulls	-9210
nette	-9211
▁1296	-9212
▁1513	-9213
▁213)	-9214
▁3213	-9215
▁3273	-9216
▁7619	-9217
▁7899	-9218
▁8002	-9219
▁8708	-9220
▁9084	-9221
▁9646	-9222
▁camo	-9223
▁edel	-9224
▁edys	-9225
▁groe	-9226
▁grow	-9227
▁inde	-9228
▁jule	-9229
▁nuub	-9230
▁puer	-9231
100603	-9232
deavor	-9233
loding	-9234
romint	-9235
stitos	-9236
tridge	-9237
▁#4082	-9238
▁(17.4	-9239
▁(2.38	-9240
▁(28.2	-9241
▁(3.84	-9242
▁(3.88	-9243
▁(4.12	-9244
▁(4.98	-9245
▁(5.43	-9246
▁(5.45	-9247
▁10045	-9248
▁10173	-9249
▁1200)	-9250
▁bikis	-9251
▁bubka	-9252
▁bublu	-9253
▁buddy	-9254
▁cacoa	-9255
▁caste	-9256
▁champ	-9257
▁colle	-9258
▁cookd	-9259
▁cosmo	-9260
▁dates	-9261
▁dayli	-9262
▁delam	-9263
▁dipps	-9264
▁douwe	-9265
▁downs	-9266
▁drive	-9267
▁duver	-9268
▁eater	-9269
▁fanta	-9270
▁farro	-9271
▁faves	-9272
▁festy	-9273
▁fince	-9274
▁fleur	-9275
▁folks	-9276
▁frava	-9277
▁frood	-9278
▁frsnk	-9279
▁funct	-9280
▁fuzzy	-9281
▁gilli	-9282
▁gooal	-9283
▁gooey	-9284
▁gorge	-9285
▁goure	-9286
▁gradu	-9287
▁groeb	-9288
▁guaya	-9289
▁handi	-9290
▁homef	-9291
▁homeg	-9292
▁homep	-9293
▁icers	-9294
▁indiv	-9295
▁infin	-9296
▁italy	-9297
▁jazzy	-9298
▁johns	-9299
211	-9300
564	-9301
crm	-9302
oca	-9303
3107	-9304
bbys	-9305
frts	-9306
lows	-9307
mata	-9308
plow	-9309
poca	-9310
▁64)	-9311
▁811	-9312
▁95%	-9313
▁ems	-9314
21101	-9315
31070	-9316
adium	-9317
ensen	-9318
inese	-9319
rocka	-9320
srcrm	-9321
▁#608	-9322
▁0760	-9323
▁2942	-9324
▁3211	-9325
▁3247	-9326
▁7644	-9327
▁8218	-9328
▁8506	-9329
▁9849	-9330
▁bobs	-9331
▁kobe	-9332
▁krus	-9333
▁mayf	-9334
▁palo	-9335
-04463	-9336
french	-9337
isnack	-9338
wealth	-9339
▁#1413	-9340
▁#4564	-9341
▁#9056	-9342
▁(3.23	-9343
▁(4.35	-9344
▁(4.37	-9345
▁(4.74	-9346
▁(4.76	-9347
▁10023	-9348
▁10171	-9349
▁20248	-9350
▁48120	-9351
▁acure	-9352
▁epoca	-9353
▁floyd	-9354
▁grabb	-9355
▁jolly	-9356
▁julep	-9357
▁kasih	-9358
▁kooch	-9359
▁krimp	-9360
▁lacro	-9361
▁lacta	-9362
▁lanqu	-9363
▁leave	-9364
▁lovin	-9365
▁lucie	-9366
▁machu	-9367
▁magic	-9368
▁mamut	-9369
▁mayan	-9370
▁michi	-9371
▁misty	-9372
▁movie	-9373
▁muffu	-9374
▁muggs	-9375
▁mulit	-9376
▁nixie	-9377
▁nunes	-9378
▁pacam	-9379
▁peeps	-9380
▁penni	-9381
▁penta	-9382
▁perky	-9383
▁petal	-9384
▁pilot	-9385
▁pluto	-9386
▁polka	-9387
▁puree	-9388
▁remix	-9389
▁rians	-9390
▁risot	-9391
▁ronny	-9392
▁rudys	-9393
▁sammy	-9394
▁sanit	-9395
▁sheen	-9396
▁shock	-9397
▁smile	-9398
▁snaps	-9399
aah	-9400
bne	-9401
crk	-9402
ahoy	-9403
carp	-9404
crkr	-9405
▁btr	-9406
▁maj	-9407
▁wtr	-9408
check	-9409
grino	-9410
quita	-9411
undry	-9412
xious	-9413
▁#410	-9414
▁#529	-9415
▁0597	-9416
▁2108	-9417
▁2159	-9418
▁3109	-9419
▁3200	-9420
▁3201	-9421
▁3202	-9422
▁3203	-9423
▁3204	-9424
▁3209	-9425
▁3265	-9426
▁4510	-9427
▁7205	-9428
▁book	-9429
▁conc	-9430
▁frmg	-9431
▁lund	-9432
▁puly	-9433
▁rosa	-9434
▁tetr	-9435
iseled	-9436
mental	-9437
ppings	-9438
things	-9439
▁#1120	-9440
▁(29.6	-9441
▁(4.24	-9442
▁(4.27	-9443
▁(5.28	-9444
▁(52.5	-9445
▁10037	-9446
▁21088	-9447
▁85837	-9448
▁aller	-9449
▁appli	-9450
▁books	-9451
▁labne	-9452
▁major	-9453
▁meats	-9454
▁poppy	-9455
▁roots	-9456
▁soppr	-9457
▁sorta	-9458
▁sourd	-9459
▁ssdes	-9460
▁stera	-9461
▁struc	-9462
▁surge	-9463
▁synth	-9464
▁tapat	-9465
▁teaja	-9466
▁therm	-9467
▁thyme	-9468
▁tiger	-9469
▁titan	-9470
▁today	-9471
▁tonic	-9472
▁tradt	-9473
▁twirl	-9474
▁unplu	-9475
▁urnez	-9476
▁vegat	-9477
▁velds	-9478
▁wildw	-9479
▁wills	-9480
▁woods	-9481
▁yanni	-9482
▁years	-9483
▁yisra	-9484
▁yisro	-9485
▁youth	-9486
▁zzzaw	-9487
▁zzzde	-9488
▁zzzmr	-9489
▁zzzru	-9490
1001021	-9491
1001026	-9492
1001029	-9493
1001034	-9494
1001050	-9495
1001200	-9496
1001230	-9497
1001231	-9498
1002780	-9499
257	-9500
gio	-9501
phq	-9502
4200	-9503
bist	-9504
lina	-9505
mega	-9506
mida	-9507
mplx	-9508
zzio	-9509
▁707	-9510
▁725	-9511
▁80%	-9512
▁830	-9513
▁arn	-9514
▁fue	-9515
▁gef	-9516
▁gem	-9517
▁vue	-9518
23257	-9519
aggio	-9520
inoko	-9521
▁1022	-9522
▁1046	-9523
▁1221	-9524
▁1525	-9525
▁7250	-9526
▁9927	-9527
▁cube	-9528
▁insu	-9529
▁ooey	-9530
▁pane	-9531
▁pint	-9532
▁skew	-9533
▁skul	-9534
langer	-9535
olgers	-9536
onlina	-9537
opcorn	-9538
rabeez	-9539
rezzio	-9540
▁#0991	-9541
▁(1.14	-9542
▁(2.30	-9543
▁(2.43	-9544
▁(2.48	-9545
▁(3.18	-9546
▁(3.96	-9547
▁(4.45	-9548
▁(48.5	-9549
▁acorn	-9550
▁arnos	-9551
▁canis	-9552
▁catal	-9553
▁cmplx	-9554
▁eight	-9555
▁fuego	-9556
▁gefen	-9557
▁manch	-9558
▁oreos	-9559
▁pelle	-9560
▁skull	-9561
▁swoon	-9562
▁tooth	-9563
▁zzztg	-9564
1002850	-9565
1002930	-9566
1006038	-9567
1006480	-9568
1006580	-9569
1007083	-9570
1007090	-9571
1007095	-9572
1007197	-9573
1007202	-9574
1007203	-9575
1007208	-9576
1007211	-9577
1007390	-9578
1007401	-9579
1007425	-9580
1007433	-9581
1007730	-9582
1007950	-9583
1007961	-9584
1007966	-9585
1007967	-9586
1007969	-9587
1007970	-9588
1007971	-9589
1007983	-9590
1008001	-9591
1008045	-9592
1008052	-9593
1008058	-9594
1008072	-9595
1008169	-9596
1008176	-9597
2110112	-9598
2120045	-9599
ec	-9600
.8(	-9601
625	-9602
aly	-9603
cil	-9604
erh	-9605
num	-9606
oul	-9607
prf	-9608
sso	-9609
tip	-9610
ugh	-9611
1810	-9612
agne	-9613
apod	-9614
bara	-9615
iele	-9616
thec	-9617
▁465	-9618
▁929	-9619
▁bau	-9620
▁bin	-9621
▁grn	-9622
▁hoj	-9623
▁int	-9624
▁suz	-9625
▁tum	-9626
.8(14	-9627
31083	-9628
agnum	-9629
broso	-9630
othec	-9631
think	-9632
▁0258	-9633
▁1005	-9634
▁1153	-9635
▁2075	-9636
▁3212	-9637
▁4021	-9638
▁7321	-9639
▁8058	-9640
▁9704	-9641
▁9918	-9642
▁9924	-9643
▁bbqs	-9644
▁leos	-9645
▁meow	-9646
▁pain	-9647
▁pods	-9648
▁quin	-9649
▁ranc	-9650
▁roca	-9651
▁sust	-9652
▁teas	-9653
▁toys	-9654
▁vive	-9655
▁warm	-9656
aniele	-9657
pencil	-9658
ughing	-9659
▁(19.9	-9660
▁(7.03	-9661
▁40067	-9662
▁44709	-9663
▁48049	-9664
▁bauli	-9665
▁busch	-9666
▁frprf	-9667
▁lacla	-9668
▁seoul	-9669
▁suzie	-9670
▁tumar	-9671
▁wowie	-9672
2120049	-9673
2120111	-9674
4/48004	-9675
agalong	-9676
agrette	-9677
akisoba	-9678
alamata	-9679
amellia	-9680
apettis	-9681
armalat	-9682
armless	-9683
asaurus	-9684
assfrts	-9685
astream	-9686
attooed	-9687
barbara	-9688
bleshot	-9689
carpone	-9690
coconut	-9691
cookies	-9692
crinkle	-9693
erkranz	-9694
essalla	-9695
essions	-9696
estalli	-9697
gherita	-9698
granate	-9699
gue	-9700
poo	-9701
▁qs	-9702
▁xl	-9703
bqss	-9704
ites	-9705
lada	-9706
mick	-9707
ucco	-9708
usto	-9709
▁928	-9710
▁aha	-9711
▁arc	-9712
▁bot	-9713
▁doo	-9714
▁frg	-9715
▁lam	-9716
▁rot	-9717
force	-9718
ickel	-9719
inski	-9720
rmick	-9721
▁#291	-9722
▁1236	-9723
▁3271	-9724
▁4517	-9725
▁4530	-9726
▁5321	-9727
▁6303	-9728
▁frgc	-9729
▁kitu	-9730
▁knox	-9731
▁most	-9732
▁nanc	-9733
▁nuna	-9734
▁slab	-9735
▁stee	-9736
▁thre	-9737
▁wick	-9738
flakes	-9739
lbites	-9740
nutter	-9741
pbbqss	-9742
ridger	-9743
uducco	-9744
utters	-9745
▁#0607	-9746
▁#0992	-9747
▁(31.1	-9748
▁11408	-9749
▁31153	-9750
▁63032	-9751
▁barry	-9752
▁botan	-9753
▁cocuy	-9754
▁faber	-9755
▁gusto	-9756
▁rogue	-9757
▁steep	-9758
▁tabas	-9759
▁trees	-9760
enberry	-9761
hmallow	-9762
hostess	-9763
icilian	-9764
ilinski	-9765
indmill	-9766
ingshot	-9767
inosaur	-9768
ischers	-9769
isienne	-9770
itality	-9771
kaccino	-9772
kittles	-9773
luxious	-9774
mbstone	-9775
orating	-9776
popcorn	-9777
ppiness	-9778
pressso	-9779
rancher	-9780
rasdale	-9781
rissimo	-9782
schweig	-9783
seltzer	-9784
snicker	-9785
stitute	-9786
tertain	-9787
tessana	-9788
tleggin	-9789
ugulach	-9790
ulfured	-9791
uturier	-9792
venient	-9793
visions	-9794
xington	-9795
▁#11859	-9796
▁#12310	-9797
▁#12311	-9798
▁#12312	-9799
277	-9800
1995	-9801
erst	-9802
gree	-9803
ical	-9804
ilio	-9805
itea	-9806
moos	-9807
▁(71	-9808
▁(76	-9809
▁amb	-9810
▁cpp	-9811
▁das	-9812
▁him	-9813
▁opt	-9814
▁ran	-9815
27710	-9816
tured	-9817
ubens	-9818
wagon	-9819
▁1301	-9820
▁2011	-9821
▁3149	-9822
▁7112	-9823
▁9723	-9824
▁brat	-9825
▁crow	-9826
▁eggn	-9827
▁frun	-9828
▁pers	-9829
▁stam	-9830
▁sula	-9831
achoco	-9832
ganite	-9833
▁#1368	-9834
▁(1.03	-9835
▁(4.89	-9836
▁(71.8	-9837
▁10126	-9838
▁10170	-9839
▁10289	-9840
▁30651	-9841
▁50094	-9842
▁metro	-9843
▁mound	-9844
▁optim	-9845
▁persu	-9846
▁porch	-9847
▁sonic	-9848
▁sound	-9849
▁stamp	-9850
▁vitea	-9851
erstone	-9852
▁#14119	-9853
▁#20198	-9854
▁#20429	-9855
▁#20655	-9856
▁#20671	-9857
▁#22006	-9858
▁#31083	-9859
▁#51362	-9860
▁#51368	-9861
▁#51369	-9862
▁#51377	-9863
▁#63497	-9864
▁#70320	-9865
▁#80880	-9866
▁#88/70	-9867
▁(1.132	-9868
▁(1.62)	-9869
▁(1.625	-9870
▁(10.23	-9871
▁(10.28	-9872
▁(10.32	-9873
▁(10.79	-9874
▁(11.34	-9875
▁(11.58	-9876
▁(12.55	-9877
▁(12.68	-9878
▁(12.81	-9879
▁(13.05	-9880
▁(13.26	-9881
▁(13.48	-9882
▁(15.35	-9883
▁(19.14	-9884
▁(19.52	-9885
▁(19.95	-9886
▁(2.75)	-9887
▁(21.23	-9888
▁(21.25	-9889
▁(21.75	-9890
▁(3.125	-9891
▁(3.245	-9892
▁(3.625	-9893
▁(33.08	-9894
▁(35.24	-9895
▁(41.41	-9896
▁(42.64	-9897
▁(67.20	-9898
▁100003	-9899
(.7	-9900
074	-9901
fer	-9902
fle	-9903
lov	-9904
omg	-9905
ord	-9906
ser	-9907
▁1)	-9908
▁ec	-9909
▁vg	-9910
1201	-9911
400)	-9912
berr	-9913
chip	-9914
inco	-9915
ishi	-9916
lach	-9917
mark	-9918
sley	-9919
▁7+1	-9920
▁inv	-9921
▁jit	-9922
▁kel	-9923
▁oli	-9924
▁ori	-9925
▁ssb	-9926
▁vgn	-9927
erryd	-9928
ffron	-9929
gford	-9930
ingle	-9931
orini	-9932
▁#277	-9933
▁#292	-9934
▁1026	-9935
▁2035	-9936
▁2074	-9937
▁3230	-9938
▁3332	-9939
▁7179	-9940
▁7892	-9941
▁7927	-9942
▁8029	-9943
▁figs	-9944
▁hark	-9945
▁jomg	-9946
▁lust	-9947
▁whiz	-9948
penser	-9949
urrant	-9950
▁#2000	-9951
▁#4024	-9952
▁(1.68	-9953
▁(10.9	-9954
▁(17.1	-9955
▁(4.58	-9956
▁(5.99	-9957
▁10094	-9958
▁50930	-9959
▁74040	-9960
▁cinco	-9961
▁invig	-9962
▁mouth	-9963
▁pepsi	-9964
▁voort	-9965
1001206	-9966
1007968	-9967
currant	-9968
rigleys	-9969
▁(13.15	-9970
▁100030	-9971
▁100078	-9972
▁100084	-9973
▁100094	-9974
▁100107	-9975
▁100109	-9976
▁100147	-9977
▁102881	-9978
▁102882	-9979
▁112986	-9980
▁141375	-9981
▁143027	-9982
▁154154	-9983
▁155671	-9984
▁155672	-9985
▁155674	-9986
▁155861	-9987
▁155862	-9988
▁156304	-9989
▁156538	-9990
▁156699	-9991
▁156835	-9992
▁157345	-9993
▁157352	-9994
▁157356	-9995
▁157359	-9996
▁157396	-9997
▁157442	-9998
▁157668	-9999
alj	-10000
loo	-10001
mus	-10002
ost	-10003
rum	-10004
ski	-10005
1918	-10006
icch	-10007
loos	-10008
musk	-10009
rium	-10010
sing	-10011
telo	-10012
▁(84	-10013
▁959	-10014
▁cri	-10015
▁elk	-10016
▁evo	-10017
▁lid	-10018
▁mia	-10019
▁rey	-10020
▁swi	-10021
21200	-10022
adees	-10023
aljil	-10024
avrie	-10025
ctrum	-10026
ghost	-10027
icchu	-10028
inals	-10029
▁#155	-10030
▁(125	-10031
▁1102	-10032
▁1321	-10033
▁1523	-10034
▁1524	-10035
▁1905	-10036
▁2786	-10037
▁3061	-10038
▁3084	-10039
▁3639	-10040
▁3648	-10041
▁4009	-10042
▁4519	-10043
▁7601	-10044
▁9313	-10045
▁boar	-10046
▁crio	-10047
▁hond	-10048
▁hope	-10049
▁sole	-10050
▁stas	-10051
▁stun	-10052
ghable	-10053
ooloos	-10054
tering	-10055
▁(3.36	-10056
▁(3.49	-10057
▁(3.99	-10058
▁(4.51	-10059
▁10120	-10060
▁40066	-10061
▁elkay	-10062
▁honch	-10063
▁pejoy	-10064
▁reyes	-10065
▁saute	-10066
▁stung	-10067
▁swift	-10068
1006500	-10069
2120052	-10070
aljillo	-10071
icinals	-10072
skittle	-10073
▁148772	-10074
▁157360	-10075
▁157675	-10076
▁160518	-10077
▁160521	-10078
▁160546	-10079
▁167744	-10080
▁1983.2	-10081
▁357428	-10082
▁39265.	-10083
▁420332	-10084
▁533700	-10085
▁8383.3	-10086
▁907045	-10087
▁907051	-10088
▁907064	-10089
▁907084	-10090
▁907104	-10091
▁9352.1	-10092
▁abomin	-10093
▁absolu	-10094
▁achoco	-10095
▁acorns	-10096
▁addict	-10097
▁affair	-10098
▁albans	-10099
bc	-10100
(13	-10101
.28	-10102
.89	-10103
993	-10104
cak	-10105
cbc	-10106
jak	-10107
kas	-10108
oak	-10109
oze	-10110
▁ak	-10111
4014	-10112
esis	-10113
ieve	-10114
pcak	-10115
pear	-10116
skas	-10117
tori	-10118
▁(55	-10119
▁466	-10120
▁akd	-10121
▁lon	-10122
▁omg	-10123
▁ona	-10124
▁zav	-10125
alaya	-10126
ining	-10127
▁#409	-10128
▁0627	-10129
▁1302	-10130
▁2017	-10131
▁2122	-10132
▁2920	-10133
▁3248	-10134
▁8068	-10135
▁ckie	-10136
▁cost	-10137
▁enuf	-10138
▁flue	-10139
▁gcbc	-10140
▁gink	-10141
▁mrye	-10142
▁ooze	-10143
▁peas	-10144
▁peel	-10145
▁phoc	-10146
▁spag	-10147
▁(16.2	-10148
▁chill	-10149
▁dansk	-10150
▁dunkd	-10151
▁ginko	-10152
▁lever	-10153
▁local	-10154
▁longh	-10155
▁spagh	-10156
▁zavid	-10157
▁zzzot	-10158
1007993	-10159
torious	-10160
verston	-10161
▁(10.19	-10162
▁(32.89	-10163
▁100073	-10164
▁154041	-10165
▁157351	-10166
▁907053	-10167
▁allerg	-10168
▁almark	-10169
▁always	-10170
▁amrita	-10171
▁antica	-10172
▁antiox	-10173
▁applie	-10174
▁armour	-10175
▁atomic	-10176
▁avalan	-10177
▁babies	-10178
▁bagged	-10179
▁barnie	-10180
▁barnum	-10181
▁basics	-10182
▁bebeto	-10183
▁beggin	-10184
▁belton	-10185
▁bickel	-10186
▁biloba	-10187
▁bitsys	-10188
▁bjorns	-10189
▁blasts	-10190
▁boardw	-10191
▁bobbys	-10192
▁boiled	-10193
▁bolani	-10194
▁bologn	-10195
▁boscos	-10196
▁breezy	-10197
▁brewed	-10198
▁brewer	-10199
831	-10200
agr	-10201
boo	-10202
cra	-10203
nel	-10204
onc	-10205
ares	-10206
bois	-10207
rolo	-10208
tech	-10209
▁#49	-10210
▁(62	-10211
▁703	-10212
▁82%	-10213
▁bed	-10214
▁ite	-10215
▁nic	-10216
▁rez	-10217
▁unw	-10218
agram	-10219
amboo	-10220
conna	-10221
ental	-10222
ucked	-10223
▁#362	-10224
▁#570	-10225
▁2005	-10226
▁3012	-10227
▁5450	-10228
▁7620	-10229
▁9100	-10230
▁casa	-10231
▁clod	-10232
▁gabi	-10233
▁item	-10234
▁marc	-10235
▁mind	-10236
▁revd	-10237
▁take	-10238
▁wake	-10239
agrams	-10240
oncino	-10241
quares	-10242
▁#1745	-10243
▁(3.39	-10244
▁(5.07	-10245
▁(6.83	-10246
▁(62.6	-10247
▁(7.72	-10248
▁(9.74	-10249
▁23002	-10250
▁40022	-10251
▁50030	-10252
▁58831	-10253
▁adven	-10254
▁leche	-10255
▁milkm	-10256
▁nicar	-10257
▁quant	-10258
betties	-10259
boisies	-10260
▁#10194	-10261
▁(1.358	-10262
▁(31.18	-10263
▁156334	-10264
▁advent	-10265
▁bamboo	-10266
▁brulee	-10267
▁bubluv	-10268
▁bucked	-10269
▁bucket	-10270
▁buckle	-10271
▁buddha	-10272
▁buffet	-10273
▁bulkie	-10274
▁calbee	-10275
▁capell	-10276
▁carols	-10277
▁censea	-10278
▁chcoco	-10279
▁chenel	-10280
▁chiles	-10281
▁chives	-10282
▁chocot	-10283
▁cholov	-10284
▁chrome	-10285
▁citron	-10286
▁colada	-10287
▁colora	-10288
▁comida	-10289
▁cortes	-10290
▁corton	-10291
▁cravin	-10292
▁creepy	-10293
▁curate	-10294
▁dasani	-10295
▁decker	-10296
▁degree	-10297
▁denial	-10298
▁desert	-10299
#3	-10300
/8	-10301
6)	-10302
hr	-10303
lm	-10304
rr	-10305
vd	-10306
wb	-10307
dsh	-10308
ize	-10309
lmn	-10310
moz	-10311
tec	-10312
ula	-10313
ups	-10314
▁cf	-10315
▁ct	-10316
▁il	-10317
4030	-10318
fill	-10319
ilis	-10320
insa	-10321
lmnb	-10322
oatd	-10323
tery	-10324
ulay	-10325
uran	-10326
▁975	-10327
▁cfl	-10328
▁fry	-10329
▁gle	-10330
▁hog	-10331
▁hvd	-10332
▁nrr	-10333
anini	-10334
cacia	-10335
chees	-10336
chunk	-10337
ennys	-10338
lmnbl	-10339
oatdk	-10340
wback	-10341
▁(.73	-10342
▁(7/8	-10343
▁0435	-10344
▁0654	-10345
▁1000	-10346
▁1965	-10347
▁2025	-10348
▁3010	-10349
▁3185	-10350
▁3207	-10351
▁3226	-10352
▁6316	-10353
▁9250	-10354
▁bigs	-10355
▁cask	-10356
▁glen	-10357
▁kimb	-10358
▁mode	-10359
▁nate	-10360
▁poas	-10361
▁potr	-10362
▁seel	-10363
100112	-10364
artley	-10365
dshall	-10366
tecada	-10367
▁(4.29	-10368
▁(5.55	-10369
▁(9.11	-10370
▁cable	-10371
▁kream	-10372
▁melba	-10373
▁peter	-10374
▁range	-10375
▁sinsa	-10376
▁zulay	-10377
▁zzzbo	-10378
▁zzzso	-10379
1001128	-10380
1008177	-10381
cheesen	-10382
filling	-10383
▁#40670	-10384
▁(16.19	-10385
▁belize	-10386
▁blintz	-10387
▁chilis	-10388
▁dippin	-10389
▁dishes	-10390
▁disney	-10391
▁doodle	-10392
▁drumro	-10393
▁dufour	-10394
▁ecuado	-10395
▁eggnog	-10396
▁elixer	-10397
▁elixir	-10398
▁entice	-10399
/1	-10400
jm	-10401
mf	-10402
845	-10403
lea	-10404
lio	-10405
▁cl	-10406
6056	-10407
eezy	-10408
lymp	-10409
scno	-10410
▁lob	-10411
▁lox	-10412
▁mjm	-10413
▁tec	-10414
▁tph	-10415
▁wmf	-10416
/1.75	-10417
accor	-10418
ettos	-10419
lette	-10420
oplan	-10421
▁#186	-10422
▁#378	-10423
▁#535	-10424
▁1039	-10425
▁2020	-10426
▁2845	-10427
▁3163	-10428
▁3232	-10429
▁7062	-10430
▁7903	-10431
▁9058	-10432
▁9650	-10433
▁9703	-10434
▁chps	-10435
▁clio	-10436
▁keta	-10437
▁kona	-10438
▁rack	-10439
▁save	-10440
▁toro	-10441
▁tphc	-10442
▁twil	-10443
lympia	-10444
versal	-10445
▁#1712	-10446
▁#4553	-10447
▁(24.8	-10448
▁(4.68	-10449
▁(8.85	-10450
▁(9.58	-10451
▁50941	-10452
▁55017	-10453
▁58800	-10454
▁58805	-10455
▁60030	-10456
▁86056	-10457
▁chipp	-10458
▁cluck	-10459
▁exper	-10460
▁flops	-10461
▁ghana	-10462
▁maxim	-10463
▁shark	-10464
▁stard	-10465
▁weezy	-10466
drizzle	-10467
▁expert	-10468
▁farfal	-10469
▁fermen	-10470
▁fettuc	-10471
▁filter	-10472
▁foamer	-10473
▁foiled	-10474
▁follow	-10475
▁garuka	-10476
▁gauara	-10477
▁gerber	-10478
▁geyser	-10479
▁ghouls	-10480
▁gutsii	-10481
▁haddar	-10482
▁halves	-10483
▁harbor	-10484
▁harlan	-10485
▁hawaii	-10486
▁heluva	-10487
▁hoisin	-10488
▁hoison	-10489
▁hojich	-10490
▁holist	-10491
▁hoodys	-10492
▁huckle	-10493
▁ignite	-10494
▁indigo	-10495
▁italia	-10496
▁jarrow	-10497
▁jensen	-10498
▁jicama	-10499
(6	-10500
hg	-10501
rl	-10502
ru	-10503
864	-10504
eti	-10505
gel	-10506
ibi	-10507
jie	-10508
▁ip	-10509
▁ob	-10510
▁ps	-10511
▁wl	-10512
4002	-10513
arub	-10514
eral	-10515
moon	-10516
xter	-10517
▁(74	-10518
▁(81	-10519
▁(89	-10520
▁367	-10521
▁abp	-10522
▁cha	-10523
▁fhg	-10524
▁ibi	-10525
▁ipa	-10526
▁leg	-10527
▁wom	-10528
aruba	-10529
cocos	-10530
ichar	-10531
steaz	-10532
▁2026	-10533
▁2864	-10534
▁3223	-10535
▁3233	-10536
▁4526	-10537
▁7100	-10538
▁8712	-10539
▁9015	-10540
▁edou	-10541
▁frps	-10542
▁impr	-10543
▁thru	-10544
▁tink	-10545
▁twrl	-10546
▁wlnt	-10547
▁yeti	-10548
100806	-10549
riddle	-10550
▁(2.84	-10551
▁(3.07	-10552
▁(74.1	-10553
▁(81.7	-10554
▁(89.4	-10555
▁50073	-10556
▁65020	-10557
▁71005	-10558
▁braun	-10559
▁chaos	-10560
▁chere	-10561
▁copen	-10562
▁herbs	-10563
▁ibiza	-10564
▁mixer	-10565
1008065	-10566
1008159	-10567
1008172	-10568
general	-10569
▁(.5625	-10570
▁(10.72	-10571
▁antoni	-10572
▁battle	-10573
▁boujie	-10574
▁bravos	-10575
▁cevich	-10576
▁charco	-10577
▁crioss	-10578
▁dexter	-10579
▁jimmie	-10580
▁jivara	-10581
▁juicys	-10582
▁jungle	-10583
▁kelley	-10584
▁kennys	-10585
▁kevita	-10586
▁kinoko	-10587
▁kissed	-10588
▁klippy	-10589
▁kramer	-10590
▁krunch	-10591
▁london	-10592
▁longbo	-10593
▁louisi	-10594
▁lowcal	-10595
▁luxury	-10596
▁macada	-10597
▁manito	-10598
▁marcip	-10599
5&	-10600
hp	-10601
vr	-10602
lyc	-10603
▁bn	-10604
▁mm	-10605
1929	-10606
agua	-10607
eats	-10608
unet	-10609
vrty	-10610
▁633	-10611
▁75&	-10612
▁hen	-10613
▁mhp	-10614
▁mmm	-10615
▁nom	-10616
▁prt	-10617
▁rud	-10618
▁tic	-10619
10038	-10620
amilk	-10621
chili	-10622
ganic	-10623
latev	-10624
lavia	-10625
otuna	-10626
panas	-10627
▁#135	-10628
▁#536	-10629
▁1519	-10630
▁1952	-10631
▁3214	-10632
▁40/5	-10633
▁4013	-10634
▁5006	-10635
▁9050	-10636
▁9765	-10637
▁9768	-10638
▁9803	-10639
▁aqua	-10640
▁demi	-10641
▁disp	-10642
▁faze	-10643
▁seth	-10644
107100	-10645
elline	-10646
▁#1354	-10647
▁#1508	-10648
▁(5.24	-10649
▁(7.48	-10650
▁(8.55	-10651
▁18410	-10652
▁cobbl	-10653
▁cooke	-10654
▁cooks	-10655
▁flats	-10656
▁nomad	-10657
▁rudol	-10658
▁shari	-10659
1003840	-10660
celline	-10661
organic	-10662
vitamin	-10663
▁(15.87	-10664
▁(16.71	-10665
▁151645	-10666
▁40/50)	-10667
▁brunet	-10668
▁chewys	-10669
▁costco	-10670
▁dispoz	-10671
▁flatev	-10672
▁fotuna	-10673
▁makeup	-10674
▁martin	-10675
▁meater	-10676
▁melons	-10677
▁menthe	-10678
▁minnie	-10679
▁mister	-10680
▁mocafe	-10681
▁modern	-10682
▁mojave	-10683
▁moment	-10684
▁muggsy	-10685
▁mussel	-10686
▁nancys	-10687
▁narrow	-10688
▁nektar	-10689
▁nibble	-10690
▁nuubia	-10691
▁olipop	-10692
▁olives	-10693
▁olsons	-10694
▁oneill	-10695
▁optima	-10696
▁organi	-10697
▁owater	-10698
▁panama	-10699
-6	-10700
em	-10701
fo	-10702
uk	-10703
.73	-10704
avy	-10705
cao	-10706
ryl	-10707
tpe	-10708
▁17	-10709
(8.5	-10710
0005	-10711
2022	-10712
ilng	-10713
love	-10714
ltpe	-10715
tauk	-10716
wavy	-10717
▁#40	-10718
▁(66	-10719
▁446	-10720
▁544	-10721
▁711	-10722
▁841	-10723
▁elf	-10724
▁ryl	-10725
▁ufo	-10726
becks	-10727
isoft	-10728
ltpep	-10729
quero	-10730
reeem	-10731
uesel	-10732
▁(380	-10733
▁1723	-10734
▁220)	-10735
▁2823	-10736
▁3052	-10737
▁3268	-10738
▁7022	-10739
▁7116	-10740
▁chum	-10741
▁corp	-10742
▁frac	-10743
▁haut	-10744
▁lush	-10745
▁mcco	-10746
100100	-10747
100708	-10748
amount	-10749
creeem	-10750
olitan	-10751
sltpep	-10752
wheels	-10753
▁#1340	-10754
▁(2.49	-10755
▁(2.67	-10756
▁(24.1	-10757
▁(27.9	-10758
▁(32.1	-10759
▁(5.48	-10760
▁(6.66	-10761
▁15405	-10762
▁50977	-10763
▁chimi	-10764
▁cocao	-10765
▁dreid	-10766
▁eldas	-10767
▁elvan	-10768
▁guinn	-10769
▁hayst	-10770
▁natal	-10771
▁nogii	-10772
▁palla	-10773
▁sable	-10774
▁suger	-10775
▁troph	-10776
1001003	-10777
1007085	-10778
ardmore	-10779
elbecks	-10780
entucky	-10781
▁(20.73	-10782
▁154054	-10783
▁544100	-10784
▁907052	-10785
▁creame	-10786
▁garish	-10787
▁honeym	-10788
▁jennie	-10789
▁paneer	-10790
▁papaya	-10791
▁paster	-10792
▁pattie	-10793
▁peachp	-10794
▁peachs	-10795
▁perryd	-10796
▁petits	-10797
▁phocus	-10798
▁picchu	-10799
63	-10800
98	-10801
xb	-10802
3.6	-10803
ath	-10804
mxb	-10805
pat	-10806
uty	-10807
uzz	-10808
▁89	-10809
▁mc	-10810
▁mp	-10811
(3.6	-10812
auty	-10813
lltr	-10814
▁463	-10815
▁899	-10816
▁guy	-10817
▁hop	-10818
▁vig	-10819
abuzz	-10820
issli	-10821
mxbry	-10822
▁#102	-10823
▁(.87	-10824
▁2015	-10825
▁3229	-10826
▁3481	-10827
▁5512	-10828
▁8260	-10829
▁9080	-10830
▁9683	-10831
▁9923	-10832
▁fult	-10833
▁hazl	-10834
▁jive	-10835
▁lift	-10836
▁loin	-10837
▁mcge	-10838
cherry	-10839
▁#1587	-10840
▁#2513	-10841
▁(1.79	-10842
▁(2.85	-10843
▁(4.59	-10844
▁(4.87	-10845
▁(6.31	-10846
▁brian	-10847
▁matin	-10848
▁mcgee	-10849
▁smore	-10850
▁stree	-10851
▁zzzca	-10852
enville	-10853
estring	-10854
okrunch	-10855
▁#18919	-10856
▁(12.75	-10857
▁156882	-10858
▁157398	-10859
▁beauty	-10860
▁bissli	-10861
▁breath	-10862
▁clever	-10863
▁fulton	-10864
▁peachu	-10865
▁pierce	-10866
▁pierog	-10867
▁pillow	-10868
▁pitaya	-10869
▁poland	-10870
▁porkie	-10871
▁porter	-10872
▁prince	-10873
▁puerto	-10874
▁ranger	-10875
▁ravish	-10876
▁recess	-10877
▁refill	-10878
▁refras	-10879
▁reishi	-10880
▁relish	-10881
▁review	-10882
▁revive	-10883
▁roated	-10884
▁rocher	-10885
▁rowdie	-10886
▁rugged	-10887
▁salads	-10888
▁sambir	-10889
▁sandys	-10890
▁sauage	-10891
▁savers	-10892
▁scheck	-10893
▁scoops	-10894
▁scotts	-10895
▁scouts	-10896
▁scream	-10897
▁seneca	-10898
▁serend	-10899
md	-10900
.83	-10901
039	-10902
app	-10903
gin	-10904
ipe	-10905
red	-10906
rew	-10907
zin	-10908
0242	-10909
ador	-10910
atin	-10911
burn	-10912
cast	-10913
ckey	-10914
lati	-10915
mdnt	-10916
rien	-10917
sses	-10918
▁675	-10919
▁829	-10920
▁cay	-10921
▁eff	-10922
▁fut	-10923
▁kni	-10924
▁our	-10925
▁wes	-10926
03941	-10927
alame	-10928
andel	-10929
brien	-10930
ckeye	-10931
lanta	-10932
umava	-10933
vador	-10934
▁#528	-10935
▁0296	-10936
▁0601	-10937
▁3225	-10938
▁6407	-10939
▁9848	-10940
▁cres	-10941
▁dino	-10942
▁duoz	-10943
▁ghir	-10944
▁holy	-10945
▁push	-10946
▁zapp	-10947
essata	-10948
kisses	-10949
splash	-10950
▁#0293	-10951
▁#2906	-10952
▁(1.57	-10953
▁(30.5	-10954
▁(6.27	-10955
▁(7.27	-10956
▁40081	-10957
▁60016	-10958
▁60242	-10959
▁cayen	-10960
▁frito	-10961
▁futbo	-10962
▁knife	-10963
▁money	-10964
▁poore	-10965
▁pumpk	-10966
▁ripen	-10967
▁snapz	-10968
▁tetle	-10969
1007426	-10970
ritzchp	-10971
▁#03941	-10972
▁(14.83	-10973
▁andrew	-10974
▁blazin	-10975
▁browns	-10976
▁coloda	-10977
▁dandel	-10978
▁flecks	-10979
▁fresca	-10980
▁futbol	-10981
▁gallon	-10982
▁ghirar	-10983
▁gratin	-10984
▁oregin	-10985
▁pumpkn	-10986
▁rubbed	-10987
▁severe	-10988
▁sheets	-10989
▁shoppe	-10990
▁shweet	-10991
▁silent	-10992
▁sinbad	-10993
▁sleeve	-10994
▁slushy	-10995
▁smacks	-10996
▁smiths	-10997
▁smooch	-10998
▁soccer	-10999
.5"	-11000
blo	-11001
ilt	-11002
▁hg	-11003
5013	-11004
eete	-11005
elis	-11006
load	-11007
▁eel	-11008
▁jow	-11009
asion	-11010
bloom	-11011
delis	-11012
idant	-11013
▁0152	-11014
▁0420	-11015
▁0472	-11016
▁1111	-11017
▁3.5"	-11018
▁3241	-11019
▁3621	-11020
▁7167	-11021
▁8024	-11022
▁9055	-11023
▁burt	-11024
▁coal	-11025
▁dona	-11026
▁flor	-11027
▁jowp	-11028
▁wavy	-11029
eetend	-11030
ustins	-11031
▁#1384	-11032
▁#1730	-11033
▁(4.19	-11034
▁(5.73	-11035
▁(6.11	-11036
▁(7.23	-11037
▁10253	-11038
▁60022	-11039
▁built	-11040
▁burts	-11041
▁peppa	-11042
▁prego	-11043
1006300	-11044
unridge	-11045
▁#51374	-11046
▁100203	-11047
▁charbo	-11048
▁chocat	-11049
▁enlive	-11050
▁frbist	-11051
▁payday	-11052
▁savann	-11053
▁sopres	-11054
▁spirit	-11055
▁sponge	-11056
▁spritz	-11057
▁squeez	-11058
▁starts	-11059
▁stoned	-11060
▁strata	-11061
▁stress	-11062
▁stuffd	-11063
▁sumava	-11064
▁summit	-11065
▁sundia	-11066
▁sunkin	-11067
▁svelte	-11068
▁syders	-11069
▁syntha	-11070
▁talame	-11071
▁tamale	-11072
▁tarter	-11073
▁tennis	-11074
▁terere	-11075
▁tetley	-11076
▁tetris	-11077
▁thermo	-11078
▁threat	-11079
▁thrive	-11080
▁tielke	-11081
▁timber	-11082
▁tinker	-11083
▁toated	-11084
▁tobago	-11085
▁toledo	-11086
▁tongol	-11087
▁trance	-11088
▁trophy	-11089
▁tulips	-11090
▁turner	-11091
▁ultimo	-11092
▁uncond	-11093
▁unwind	-11094
▁uptown	-11095
▁vendor	-11096
▁venice	-11097
▁walkin	-11098
▁waters	-11099
cl	-11100
mt	-11101
.01	-11102
426	-11103
▁2.	-11104
▁gt	-11105
▁ol	-11106
▁wg	-11107
1138	-11108
2008	-11109
amak	-11110
anes	-11111
bery	-11112
rown	-11113
zzle	-11114
▁2.0	-11115
▁691	-11116
▁719	-11117
▁720	-11118
▁956	-11119
▁ast	-11120
▁brd	-11121
▁pnt	-11122
▁say	-11123
▁tac	-11124
▁upb	-11125
cipal	-11126
elmas	-11127
kemon	-11128
▁(107	-11129
▁0430	-11130
▁1013	-11131
▁1075	-11132
▁4513	-11133
▁7182	-11134
▁7618	-11135
▁8261	-11136
▁9254	-11137
▁chat	-11138
▁cole	-11139
▁garc	-11140
▁guit	-11141
▁mens	-11142
▁parf	-11143
▁pike	-11144
▁ware	-11145
entura	-11146
▁#0953	-11147
▁#1409	-11148
▁#1743	-11149
▁(2.39	-11150
▁(2.86	-11151
▁(6.21	-11152
▁31202	-11153
▁50084	-11154
▁55015	-11155
▁angry	-11156
▁astra	-11157
▁beech	-11158
▁began	-11159
▁damak	-11160
▁giada	-11161
▁granu	-11162
▁guitt	-11163
▁julia	-11164
▁place	-11165
▁rocks	-11166
0336.15	-11167
1001138	-11168
▁(15.01	-11169
▁(19.83	-11170
▁defend	-11171
▁dianes	-11172
▁france	-11173
▁garcia	-11174
▁grandy	-11175
▁pastel	-11176
▁sizzle	-11177
▁upbeet	-11178
▁wesley	-11179
▁whales	-11180
▁whiter	-11181
▁wicked	-11182
▁wilmot	-11183
▁womens	-11184
▁xpress	-11185
▁zavida	-11186
▁zzzbig	-11187
▁zzzbob	-11188
▁zzzgre	-11189
▁zzzhot	-11190
▁zzzjav	-11191
▁zzzmrs	-11192
▁zzznes	-11193
▁zzzred	-11194
▁zzzsan	-11195
.8(14.75	-11196
alicious	-11197
bearably	-11198
bertsons	-11199
(9	-11200
sd	-11201
vu	-11202
800	-11203
cut	-11204
meg	-11205
tly	-11206
0000	-11207
1910	-11208
ired	-11209
rect	-11210
thin	-11211
▁155	-11212
▁275	-11213
▁502	-11214
▁99%	-11215
▁dul	-11216
▁hut	-11217
▁lav	-11218
▁lol	-11219
▁mai	-11220
▁rid	-11221
apill	-11222
erola	-11223
ginal	-11224
ichon	-11225
letta	-11226
luble	-11227
urich	-11228
▁#511	-11229
▁(.10	-11230
▁0502	-11231
▁1021	-11232
▁1072	-11233
▁1231	-11234
▁2004	-11235
▁2018	-11236
▁275)	-11237
▁2908	-11238
▁3126	-11239
▁7639	-11240
▁7803	-11241
▁cpto	-11242
▁croc	-11243
▁lana	-11244
▁loma	-11245
▁mann	-11246
▁neuf	-11247
▁poor	-11248
▁saig	-11249
791910	-11250
isters	-11251
monter	-11252
papill	-11253
▁#1741	-11254
▁#2536	-11255
▁#4081	-11256
▁(1.74	-11257
▁(9.88	-11258
▁10055	-11259
▁15565	-11260
▁50937	-11261
▁bialy	-11262
▁crepe	-11263
▁detox	-11264
▁dulce	-11265
▁fours	-11266
▁muffy	-11267
▁spitz	-11268
▁wired	-11269
▁zzzbe	-11270
1007800	-11271
chichon	-11272
eatthin	-11273
▁#10332	-11274
▁155653	-11275
▁compsd	-11276
▁direct	-11277
▁lavish	-11278
▁living	-11279
▁manner	-11280
▁neufch	-11281
▁nutmeg	-11282
▁peapod	-11283
▁ridged	-11284
▁saigon	-11285
▁subtly	-11286
▁zurich	-11287
▁zzzoak	-11288
hazelnut	-11289
hmallows	-11290
icharron	-11291
istretto	-11292
ksgiving	-11293
lavender	-11294
mentaler	-11295
milkyway	-11296
moncello	-11297
naturals	-11298
othecary	-11299
gm	-11300
/16	-11301
627	-11302
idu	-11303
9197	-11304
ital	-11305
ulge	-11306
▁709	-11307
▁823	-11308
▁kis	-11309
▁snv	-11310
erald	-11311
verie	-11312
▁#109	-11313
▁(.51	-11314
▁(.52	-11315
▁(.57	-11316
▁(.59	-11317
▁(134	-11318
▁1010	-11319
▁1142	-11320
▁2785	-11321
▁3612	-11322
▁4003	-11323
▁4006	-11324
▁5627	-11325
▁7419	-11326
▁7904	-11327
▁8700	-11328
▁9716	-11329
▁9727	-11330
▁gron	-11331
▁lech	-11332
▁sway	-11333
▁swed	-11334
oconut	-11335
▁#1125	-11336
▁#1374	-11337
▁(1.86	-11338
▁(12.4	-11339
▁(12.9	-11340
▁(2.06	-11341
▁(24.5	-11342
▁(58.4	-11343
▁10060	-11344
▁30021	-11345
▁50931	-11346
▁50949	-11347
▁amish	-11348
▁gronk	-11349
▁gutsy	-11350
▁teaze	-11351
▁tress	-11352
idually	-11353
▁(13/16	-11354
▁(30.98	-11355
▁157421	-11356
▁159197	-11357
▁chamoy	-11358
▁leches	-11359
▁rotoni	-11360
▁trifle	-11361
papillon	-11362
pendence	-11363
quecitos	-11364
rdillera	-11365
ridgford	-11366
starkist	-11367
uschetta	-11368
whoppers	-11369
▁#131070	-11370
▁#141198	-11371
▁#220064	-11372
▁#226600	-11373
▁#226625	-11374
▁1029930	-11375
▁15615.5	-11376
▁1832765	-11377
▁1966-16	-11378
▁2007627	-11379
▁2010284	-11380
▁2027512	-11381
▁2033403	-11382
▁2068440	-11383
▁2102335	-11384
▁2102635	-11385
▁2102661	-11386
▁2103710	-11387
▁2103713	-11388
▁2105991	-11389
▁2108806	-11390
▁41853.4	-11391
▁42120.3	-11392
▁52187.4	-11393
▁52189.6	-11394
▁63749.5	-11395
▁63951.1	-11396
▁7358830	-11397
▁7388830	-11398
▁7679909	-11399
16)	-11400
654	-11401
jos	-11402
bowl	-11403
iant	-11404
ispy	-11405
izer	-11406
pnut	-11407
▁(90	-11408
▁153	-11409
▁916	-11410
▁hny	-11411
▁mse	-11412
▁ohi	-11413
▁rap	-11414
astix	-11415
gater	-11416
issin	-11417
itive	-11418
iwich	-11419
rispy	-11420
ttice	-11421
▁#237	-11422
▁#654	-11423
▁#674	-11424
▁(.16	-11425
▁0503	-11426
▁1007	-11427
▁1937	-11428
▁2151	-11429
▁2943	-11430
▁3192	-11431
▁4010	-11432
▁5570	-11433
▁7814	-11434
▁9076	-11435
▁9308	-11436
▁9715	-11437
▁boot	-11438
▁lucy	-11439
▁nine	-11440
▁oatg	-11441
▁ober	-11442
▁wine	-11443
elloni	-11444
greens	-11445
▁#0995	-11446
▁(18.7	-11447
▁(20.9	-11448
▁(5.82	-11449
▁10068	-11450
▁15303	-11451
▁50938	-11452
▁71014	-11453
▁assam	-11454
▁carrs	-11455
▁delit	-11456
▁forte	-11457
▁jojos	-11458
▁mamba	-11459
▁sarah	-11460
▁trios	-11461
▁zzzsm	-11462
▁100052	-11463
▁155673	-11464
▁9308.3	-11465
▁gummie	-11466
▁hamant	-11467
▁masada	-11468
▁mellos	-11469
▁nissin	-11470
▁oberto	-11471
▁paring	-11472
▁qrispy	-11473
▁westco	-11474
▁zzzmet	-11475
alapenos	-11476
▁2099348	-11477
▁769/675	-11478
▁7827710	-11479
▁7889.35	-11480
▁83427.4	-11481
▁8381.15	-11482
▁8381.23	-11483
▁8381.44	-11484
▁8381.45	-11485
▁8381.46	-11486
▁9418816	-11487
▁94936.2	-11488
▁94936.8	-11489
▁acerola	-11490
▁against	-11491
▁alegria	-11492
▁alterra	-11493
▁andalou	-11494
▁antonio	-11495
▁anytime	-11496
▁ardmore	-11497
▁austins	-11498
▁bangkok	-11499
228	-11500
bay	-11501
dog	-11502
swp	-11503
▁7-	-11504
▁lt	-11505
-12-	-11506
1801	-11507
dden	-11508
dogs	-11509
ides	-11510
mars	-11511
ople	-11512
tles	-11513
▁#42	-11514
▁109	-11515
▁911	-11516
▁fog	-11517
▁muy	-11518
▁uno	-11519
▁zap	-11520
heart	-11521
rchin	-11522
▁#290	-11523
▁0504	-11524
▁1091	-11525
▁1188	-11526
▁1501	-11527
▁3215	-11528
▁4023	-11529
▁5001	-11530
▁5539	-11531
▁9853	-11532
▁lied	-11533
▁line	-11534
▁neap	-11535
▁pnut	-11536
▁smet	-11537
▁sswp	-11538
▁tang	-11539
eating	-11540
rident	-11541
unters	-11542
▁#0986	-11543
▁#3995	-11544
▁11733	-11545
▁30071	-11546
▁60005	-11547
▁67512	-11548
▁bubba	-11549
▁mobay	-11550
▁reser	-11551
▁rosas	-11552
▁savor	-11553
▁sides	-11554
▁tater	-11555
▁whene	-11556
1008004	-11557
1008152	-11558
▁#12084	-11559
▁(12.25	-11560
▁(15.75	-11561
▁(16.25	-11562
▁(2.875	-11563
▁155881	-11564
▁ciocco	-11565
▁duplex	-11566
▁hidden	-11567
▁minion	-11568
▁people	-11569
▁proten	-11570
▁revolt	-11571
▁baquero	-11572
▁barbara	-11573
▁bayview	-11574
▁beemaid	-11575
▁beignet	-11576
▁belgium	-11577
▁believe	-11578
▁bellini	-11579
▁berocca	-11580
▁biomilk	-11581
▁biscott	-11582
▁blender	-11583
▁blosson	-11584
▁bolitas	-11585
▁bolivia	-11586
▁bostons	-11587
▁boundry	-11588
▁bouquet	-11589
▁braised	-11590
▁brodies	-11591
▁brookie	-11592
▁builder	-11593
▁buiscut	-11594
▁bustelo	-11595
▁buttter	-11596
▁caesars	-11597
▁calming	-11598
▁camille	-11599
mld	-11600
olp	-11601
olt	-11602
1994	-11603
2518	-11604
3018	-11605
atel	-11606
cran	-11607
ilsh	-11608
olpi	-11609
pink	-11610
rell	-11611
ttin	-11612
▁221	-11613
▁4/7	-11614
▁620	-11615
▁81%	-11616
▁906	-11617
▁jim	-11618
▁let	-11619
▁mom	-11620
▁noa	-11621
▁ooh	-11622
▁wai	-11623
▁(.62	-11624
▁(110	-11625
▁(145	-11626
▁0151	-11627
▁0650	-11628
▁1202	-11629
▁2008	-11630
▁2404	-11631
▁3033	-11632
▁3659	-11633
▁8305	-11634
▁berk	-11635
▁cann	-11636
▁deal	-11637
▁dink	-11638
▁jolt	-11639
▁pate	-11640
▁tias	-11641
▁wish	-11642
ustard	-11643
▁#9055	-11644
▁(2.79	-11645
▁(3.55	-11646
▁(4.43	-11647
▁(4.46	-11648
▁(4.54	-11649
▁(7.34	-11650
▁(85.9	-11651
▁(9.38	-11652
▁(9.89	-11653
▁40018	-11654
▁70004	-11655
▁bloks	-11656
▁cocon	-11657
▁cupid	-11658
▁parma	-11659
▁salum	-11660
▁volpi	-11661
1006290	-11662
unkless	-11663
▁(11.24	-11664
▁(14.75	-11665
▁(15.11	-11666
▁deilsh	-11667
▁lillys	-11668
▁natura	-11669
▁piping	-11670
▁raskas	-11671
▁straws	-11672
▁weller	-11673
▁wholly	-11674
jalapeno	-11675
▁2012518	-11676
▁berkley	-11677
▁caraibe	-11678
▁carnita	-11679
▁cayenne	-11680
▁centrum	-11681
▁cepacol	-11682
▁ceviche	-11683
▁chavrie	-11684
▁chedder	-11685
▁cheesee	-11686
▁cheesey	-11687
▁clovers	-11688
▁coastal	-11689
▁coating	-11690
▁coconot	-11691
▁college	-11692
▁compass	-11693
▁compprf	-11694
▁control	-11695
▁convers	-11696
▁cortona	-11697
▁craisin	-11698
▁crocket	-11699
fru	-11700
▁4"	-11701
1928	-11702
angs	-11703
lees	-11704
sour	-11705
▁814	-11706
▁875	-11707
▁884	-11708
▁9.5	-11709
▁ahh	-11710
▁amc	-11711
▁flu	-11712
▁gan	-11713
▁zhi	-11714
ichel	-11715
idmer	-11716
ritos	-11717
▁#527	-11718
▁(.37	-11719
▁0501	-11720
▁0602	-11721
▁1011	-11722
▁1197	-11723
▁2041	-11724
▁2101	-11725
▁3118	-11726
▁3622	-11727
▁6208	-11728
▁9926	-11729
▁dure	-11730
▁gogo	-11731
▁laja	-11732
▁loop	-11733
▁mays	-11734
▁ripe	-11735
▁yama	-11736
amonas	-11737
itches	-11738
▁#1366	-11739
▁(14.1	-11740
▁(31.5	-11741
▁(5.01	-11742
▁15406	-11743
▁18840	-11744
▁31123	-11745
▁43089	-11746
▁85826	-11747
▁banjo	-11748
▁bison	-11749
▁disco	-11750
▁heide	-11751
▁jacko	-11752
▁yangs	-11753
769/675	-11754
chiller	-11755
riginal	-11756
▁#70300	-11757
▁(27.14	-11758
▁(32.12	-11759
▁154063	-11760
▁beanos	-11761
▁fruits	-11762
▁golazo	-11763
▁hoopie	-11764
▁origin	-11765
▁shelia	-11766
▁sonics	-11767
▁spence	-11768
▁uniced	-11769
▁widmer	-11770
▁zzzraw	-11771
original	-11772
▁capital	-11773
▁chilled	-11774
▁chococh	-11775
▁crottin	-11776
▁crowley	-11777
▁crumbly	-11778
▁crunchd	-11779
▁crusted	-11780
▁cubetti	-11781
▁cutters	-11782
▁dalfour	-11783
▁daniele	-11784
▁daniels	-11785
▁darkest	-11786
▁deconna	-11787
▁degrees	-11788
▁delallo	-11789
▁delitia	-11790
▁dieselp	-11791
▁dietary	-11792
▁diggity	-11793
▁dreamin	-11794
▁dreidel	-11795
▁dreyers	-11796
▁earplug	-11797
▁earthbo	-11798
▁eastern	-11799
068	-11800
ums	-11801
▁41	-11802
▁if	-11803
tely	-11804
zero	-11805
▁23)	-11806
▁4.4	-11807
▁525	-11808
▁7.2	-11809
▁70)	-11810
▁ifs	-11811
10033	-11812
icana	-11813
inden	-11814
lands	-11815
milkd	-11816
olina	-11817
▁#105	-11818
▁(150	-11819
▁1185	-11820
▁3292	-11821
▁3426	-11822
▁4581	-11823
▁7616	-11824
▁8206	-11825
▁8282	-11826
▁9652	-11827
▁9875	-11828
▁burn	-11829
▁hosp	-11830
▁left	-11831
▁muss	-11832
▁rbar	-11833
▁roni	-11834
▁ssmg	-11835
▁ties	-11836
▁tres	-11837
(10.75	-11838
▁#1068	-11839
▁(18.4	-11840
▁(3.12	-11841
▁(3.26	-11842
▁(7.54	-11843
▁(7.55	-11844
▁03740	-11845
▁30551	-11846
▁40/60	-11847
▁52553	-11848
▁92505	-11849
▁bento	-11850
▁goods	-11851
▁haley	-11852
▁holes	-11853
▁minty	-11854
▁pando	-11855
▁proud	-11856
▁scout	-11857
1003240	-11858
1003370	-11859
1006270	-11860
2120110	-11861
milkdud	-11862
▁#20188	-11863
▁(10.27	-11864
▁(13.29	-11865
▁907097	-11866
▁barber	-11867
▁lemony	-11868
▁nikkis	-11869
▁nothin	-11870
▁redjak	-11871
▁ripper	-11872
lemonade	-11873
▁2101639	-11874
▁crackel	-11875
▁edamame	-11876
▁emerald	-11877
▁endulge	-11878
▁enerbee	-11879
▁eraclea	-11880
▁extract	-11881
▁faberge	-11882
▁fajitas	-11883
▁faxmilk	-11884
▁ferrari	-11885
▁ferrero	-11886
▁ficelle	-11887
▁fireman	-11888
▁flavors	-11889
▁fleurie	-11890
▁florets	-11891
▁folgers	-11892
▁forager	-11893
▁foxtail	-11894
▁freshly	-11895
▁frfruit	-11896
▁frields	-11897
▁frslbcr	-11898
▁frslbdw	-11899
(16	-11900
alk	-11901
(5.8	-11902
1200	-11903
1919	-11904
1927	-11905
berg	-11906
riez	-11907
▁812	-11908
▁917	-11909
▁ara	-11910
▁owl	-11911
mango	-11912
▁#899	-11913
▁(.82	-11914
▁0110	-11915
▁0565	-11916
▁1003	-11917
▁1004	-11918
▁1009	-11919
▁1094	-11920
▁1107	-11921
▁2983	-11922
▁3112	-11923
▁7157	-11924
▁8004	-11925
▁8041	-11926
▁9071	-11927
▁9315	-11928
▁bunn	-11929
▁crew	-11930
▁frog	-11931
▁hass	-11932
▁jawa	-11933
▁luck	-11934
▁oaks	-11935
▁span	-11936
gluten	-11937
landic	-11938
ranova	-11939
▁(1.66	-11940
▁(1.89	-11941
▁(2.63	-11942
▁(20.8	-11943
▁(5.34	-11944
▁(6.42	-11945
▁(6.55	-11946
▁(6.56	-11947
▁(8.36	-11948
▁1000)	-11949
▁10047	-11950
▁30011	-11951
▁33125	-11952
▁clove	-11953
▁fiery	-11954
▁float	-11955
▁friez	-11956
▁funny	-11957
▁laura	-11958
▁quinn	-11959
▁quins	-11960
▁right	-11961
▁solar	-11962
▁tripe	-11963
1007965	-11964
1008041	-11965
toasted	-11966
▁#20013	-11967
▁(20.75	-11968
▁100169	-11969
▁araway	-11970
▁chipot	-11971
▁flaked	-11972
▁quinao	-11973
▁roland	-11974
▁squarz	-11975
▁zzzflo	-11976
▁arnotts	-11977
▁crispin	-11978
▁frslbpr	-11979
▁frslbps	-11980
▁frslbtr	-11981
▁funleys	-11982
▁ganache	-11983
▁garbers	-11984
▁generis	-11985
▁genesis	-11986
▁gensing	-11987
▁gerbera	-11988
▁gibbles	-11989
▁gilliam	-11990
▁giraffe	-11991
▁glaceau	-11992
▁glasses	-11993
▁gorilly	-11994
▁gouremt	-11995
▁griddle	-11996
▁grizzly	-11997
▁grocers	-11998
▁growing	-11999
(.8	-12000
.02	-12001
126	-12002
joe	-12003
mild	-12004
pome	-12005
▁435	-12006
▁52)	-12007
▁712	-12008
▁784	-12009
▁897	-12010
▁902	-12011
▁edd	-12012
▁zoi	-12013
apack	-12014
onder	-12015
▁#108	-12016
▁#256	-12017
▁(.70	-12018
▁(248	-12019
▁3110	-12020
▁3297	-12021
▁8030	-12022
▁9010	-12023
▁9126	-12024
▁9890	-12025
▁9915	-12026
▁deck	-12027
▁dial	-12028
▁mama	-12029
▁moto	-12030
▁mway	-12031
▁syle	-12032
▁tots	-12033
estone	-12034
packer	-12035
▁#4572	-12036
▁(1.32	-12037
▁(1.37	-12038
▁(1.61	-12039
▁(13.9	-12040
▁(2.57	-12041
▁(24.6	-12042
▁(25.2	-12043
▁(25.5	-12044
▁(3.38	-12045
▁(9.52	-12046
▁50052	-12047
▁60017	-12048
▁eddys	-12049
▁elmer	-12050
▁frais	-12051
▁grana	-12052
▁poboy	-12053
▁yello	-12054
▁yorks	-12055
1006470	-12056
1007986	-12057
hershey	-12058
▁(1.76.	-12059
▁(13.02	-12060
▁(19.75	-12061
▁(25.25	-12062
▁8157.1	-12063
▁biocaf	-12064
▁chewie	-12065
▁finger	-12066
▁finish	-12067
▁frothy	-12068
▁frunas	-12069
▁hament	-12070
▁hugged	-12071
▁pepero	-12072
▁porker	-12073
▁chinese	-12074
▁guayaki	-12075
▁gunters	-12076
▁hardies	-12077
▁harkins	-12078
▁hartley	-12079
▁hazlnut	-12080
▁hojicha	-12081
▁honchos	-12082
▁honeyed	-12083
▁hotshot	-12084
▁hualien	-12085
▁hydrate	-12086
▁indiana	-12087
▁iscream	-12088
▁jamaica	-12089
▁jamwich	-12090
▁janaban	-12091
▁jittery	-12092
▁jpbbqss	-12093
▁juniors	-12094
▁kabrita	-12095
▁khaotic	-12096
▁kickass	-12097
▁kimbles	-12098
▁kooloos	-12099
.,	-12100
204	-12101
nik	-12102
sem	-12103
ugs	-12104
▁fb	-12105
afit	-12106
aise	-12107
▁#10	-12108
▁603	-12109
▁738	-12110
▁786	-12111
▁801	-12112
▁808	-12113
▁eye	-12114
▁gaf	-12115
▁smf	-12116
▁vin	-12117
ernie	-12118
inias	-12119
inier	-12120
lifes	-12121
owers	-12122
▁0471	-12123
▁0570	-12124
▁1130	-12125
▁1259	-12126
▁1503	-12127
▁2100	-12128
▁3028	-12129
▁3100	-12130
▁3111	-12131
▁3132	-12132
▁3208	-12133
▁3252	-12134
▁4518	-12135
▁5100	-12136
▁7411	-12137
▁7635	-12138
▁8315	-12139
▁9088	-12140
▁9251	-12141
▁hugs	-12142
▁noir	-12143
▁osem	-12144
▁sean	-12145
▁#1706	-12146
▁#4513	-12147
▁(1.91	-12148
▁(18.1	-12149
▁(18.9	-12150
▁(2.19	-12151
▁(2.68	-12152
▁(4.79	-12153
▁(76.5	-12154
▁10132	-12155
▁31201	-12156
▁apres	-12157
▁arway	-12158
▁bruce	-12159
▁kings	-12160
▁kurls	-12161
▁scrub	-12162
▁teton	-12163
▁there	-12164
▁turky	-12165
▁unswt	-12166
1008002	-12167
▁#20424	-12168
▁#51372	-12169
▁(15.96	-12170
▁bernie	-12171
▁celtic	-12172
▁franke	-12173
▁joytata	-12174
▁kreamie	-12175
▁krinkle	-12176
▁laclare	-12177
▁lacroix	-12178
▁lanquin	-12179
▁lattice	-12180
▁lillies	-12181
▁lobster	-12182
▁machine	-12183
▁madness	-12184
▁mangoes	-12185
▁marcala	-12186
▁matinee	-12187
▁maximum	-12188
▁mayfair	-12189
▁medleys	-12190
▁melting	-12191
▁mermaid	-12192
▁mifroma	-12193
▁milling	-12194
▁million	-12195
▁minsley	-12196
▁momenti	-12197
▁montauk	-12198
▁morning	-12199
▁morrell	-12200
▁mylanta	-12201
▁naturas	-12202
▁natured	-12203
▁naturel	-12204
▁nipchee	-12205
▁nirvana	-12206
▁noodles	-12207
▁notmilk	-12208
▁nuggest	-12209
▁nutmilk	-12210
▁oatgurt	-12211
▁olympia	-12212
▁ophelia	-12213
▁oragnic	-12214
▁orginal	-12215
▁ovation	-12216
▁panache	-12217
▁panther	-12218
▁parkers	-12219
▁pasture	-12220
▁pennies	-12221
▁pierogi	-12222
▁pokemon	-12223
▁polybag	-12224
▁popping	-12225
▁poptime	-12226
▁popular	-12227
▁potrero	-12228
▁pounder	-12229
▁powered	-12230
▁private	-12231
▁protean	-12232
▁protege	-12233
▁punched	-12234
▁purefit	-12235
▁quantum	-12236
▁radical	-12237
▁rainfor	-12238
▁rainier	-12239
▁raining	-12240
▁ramonas	-12241
▁rattler	-12242
▁ravoili	-12243
▁reliant	-12244
▁renfros	-12245
▁reserve	-12246
▁restful	-12247
▁reubens	-12248
▁reverie	-12249
▁rhubarb	-12250
▁riblets	-12251
▁ripened	-12252
▁risotto	-12253
▁roaster	-12254
▁rondele	-12255
▁rooster	-12256
▁rudolph	-12257
▁russett	-12258
▁rutters	-12259
▁sabroso	-12260
▁saffron	-12261
▁salazar	-12262
▁salazon	-12263
▁savanna	-12264
▁scooter	-12265
▁scratch	-12266
▁screeem	-12267
▁seahive	-12268
▁seasons	-12269
▁seeling	-12270
▁serrano	-12271
▁service	-12272
▁serving	-12273
▁shampoo	-12274
▁sharped	-12275
▁shingle	-12276
▁shining	-12277
▁siggies	-12278
▁sirloin	-12279
▁sisters	-12280
▁skewers	-12281
▁slammin	-12282
▁smillie	-12283
▁snicker	-12284
▁snowmen	-12285
▁soluble	-12286
▁sourdgh	-12287
▁soyrizo	-12288
▁springs	-12289
▁sprintz	-12290
▁stacked	-12291
▁stadium	-12292
▁stasero	-12293
▁steamed	-12294
▁striped	-12295
▁sucrets	-12296
▁sundays	-12297
▁swedish	-12298
▁tabasco	-12299
▁tamales	-12300
▁tandoor	-12301
▁tapatio	-12302
▁taralli	-12303
▁tempura	-12304
▁thelmas	-12305
▁tidbits	-12306
▁tielkes	-12307
▁toffees	-12308
▁tonight	-12309
▁totally	-12310
▁trapper	-12311
▁tressee	-12312
▁trident	-12313
▁trimino	-12314
▁trotter	-12315
▁tumaros	-12316
▁twinkle	-12317
▁twisted	-12318
▁unicorn	-12319
▁unsweet	-12320
▁velvety	-12321
▁vending	-12322
▁venison	-12323
▁ventura	-12324
▁virgina	-12325
▁vittles	-12326
▁walking	-12327
▁wheyfer	-12328
▁whipper	-12329
▁willows	-12330
▁witches	-12331
▁wonders	-12332
▁yanceys	-12333
▁yerbana	-12334
▁yisrael	-12335
▁yisroel	-12336
▁yoconut	-12337
▁zookies	-12338
▁zzzbevi	-12339
▁zzzchar	-12340
▁zzzclif	-12341
▁zzzfair	-12342
▁zzzjust	-12343
▁zzzkali	-12344
▁zzzkayo	-12345
▁zzzkind	-12346
▁zzzland	-12347
▁zzzlove	-12348
▁zzzluna	-12349
▁zzzmade	-12350
▁zzzmars	-12351
▁zzzmega	-12352
▁zzzoreo	-12353
▁zzzotis	-12354
▁zzzrudi	-12355
▁zzzruiz	-12356
▁zzzruna	-12357
▁zzzsobe	-12358
117/48000	-12359
122/48002	-12360
124/48004	-12361
511/48029	-12362
appleways	-12363
cheesenip	-12364
cranberry	-12365
crazyrich	-12366
monterrey	-12367
raspberry	-12368
schweiger	-12369
starburst	-12370
verstones	-12371
wheatthin	-12372
▁#1223257	-12373
▁#7129920	-12374
▁#7134867	-12375
▁#769/675	-12376
▁133599.1	-12377
▁134318.6	-12378
▁135269.5	-12379
▁148772.5	-12380
▁156581.2	-12381
▁17350.28	-12382
▁17350.35	-12383
▁74040.16	-12384
▁90336.15	-12385
▁94936.24	-12386
▁98-13785	-12387
▁aloevine	-12388
▁alpsnack	-12389
▁alvarado	-12390
▁ambition	-12391
▁arrezzio	-12392
▁atalanta	-12393
▁barefoot	-12394
▁barisimo	-12395
▁battered	-12396
▁bauducco	-12397
▁bautista	-12398
▁bearclaw	-12399
▁belfonte	-12400
▁benefits	-12401
▁berryade	-12402
▁bilinski	-12403
▁billybee	-12404
▁blackeye	-12405
▁blondies	-12406
▁brookies	-12407
▁burritos	-12408
▁camomile	-12409
▁campanas	-12410
▁canister	-12411
▁capicola	-12412
▁capresso	-12413
▁castello	-12414
▁catalina	-12415
▁chambord	-12416
▁charboil	-12417
▁charcoal	-12418
▁charleys	-12419
▁checkers	-12420
▁cheerful	-12421
▁cherried	-12422
▁chewable	-12423
▁chippies	-12424
▁chiseled	-12425
▁chocatal	-12426
▁chocotal	-12427
▁christie	-12428
▁cinnamin	-12429
▁coconola	-12430
▁coconuts	-12431
▁coleslaw	-12432
▁colorado	-12433
▁columbia	-12434
▁coookies	-12435
▁coremill	-12436
▁cornmeal	-12437
▁cracklin	-12438
▁cranbery	-12439
▁crescent	-12440
▁crispers	-12441
▁critters	-12442
▁crushing	-12443
▁crystals	-12444
▁daylight	-12445
▁delamere	-12446
▁delishus	-12447
▁dinosaur	-12448
▁dolceria	-12449
▁donettes	-12450
▁doughnut	-12451
▁dreamies	-12452
▁drizzles	-12453
▁drumroll	-12454
▁duverger	-12455
▁earplugs	-12456
▁egglands	-12457
▁eggwhite	-12458
▁elephant	-12459
▁endeavor	-12460
▁enhancer	-12461
▁envision	-12462
▁expresso	-12463
▁farfalle	-12464
▁fischers	-12465
▁fishbowl	-12466
▁flaxmilk	-12467
▁foccacia	-12468
▁focusaid	-12469
▁frbrkfst	-12470
▁fritters	-12471
▁frontier	-12472
▁froodles	-12473
▁frothing	-12474
▁frslbprz	-12475
▁frslbsnk	-12476
▁furikake	-12477
▁gezellig	-12478
▁glenview	-12479
▁godshall	-12480
▁gourmets	-12481
▁grabbers	-12482
▁grabbits	-12483
▁grandito	-12484
▁granolly	-12485
▁grapeade	-12486
▁guinness	-12487
▁guittard	-12488
▁handmade	-12489
▁harmless	-12490
▁hempmilk	-12491
▁himalaya	-12492
▁hippease	-12493
▁honduran	-12494
▁infinity	-12495
▁italiano	-12496
▁jobrkfst	-12497
▁junkless	-12498
▁kalamata	-12499
▁kentucky	-12500
▁kielbasa	-12501
▁kikkoman	-12502
▁knudsens	-12503
▁krasdale	-12504
▁krimpets	-12505
▁krusteaz	-12506
▁kursteaz	-12507
▁laughing	-12508
▁longhorn	-12509
▁lorissas	-12510
▁loverboy	-12511
▁lundberg	-12512
▁lycheese	-12513
▁maizetos	-12514
▁manchego	-12515
▁manitoba	-12516
▁marigold	-12517
▁marzipan	-12518
▁meltable	-12519
▁mexicana	-12520
▁michigan	-12521
▁mornings	-12522
▁natalies	-12523
▁naturipe	-12524
▁nessalla	-12525
▁nonnette	-12526
▁nonsmoke	-12527
▁oathoney	-12528
▁omelette	-12529
▁oriental	-12530
▁outshine	-12531
▁overcast	-12532
▁pacamara	-12533
▁passover	-12534
▁pasteria	-12535
▁penguins	-12536
▁personal	-12537
▁pinapple	-12538
▁pinwheel	-12539
▁pipeline	-12540
▁placeset	-12541
▁platinum	-12542
▁poparuba	-12543
▁positive	-12544
▁powerful	-12545
▁powergel	-12546
▁pumpking	-12547
▁pumpkins	-12548
▁purnells	-12549
▁ranchero	-12550
▁rancilio	-12551
▁raspberr	-12552
▁rayberns	-12553
▁realgood	-12554
▁redberry	-12555
▁refrasia	-12556
▁reggiano	-12557
▁revittle	-12558
▁rhubarab	-12559
▁rugelach	-12560
▁rugulach	-12561
▁salvador	-12562
▁sambucol	-12563
▁scooters	-12564
▁scorchin	-12565
▁seagrams	-12566
▁semisoft	-12567
▁semolina	-12568
▁severino	-12569
▁sharkies	-12570
▁shopkins	-12571
▁sicilian	-12572
▁smartfit	-12573
▁snowplow	-12574
▁solbites	-12575
▁speciesi	-12576
▁spectrum	-12577
▁squirrel	-12578
▁srirocka	-12579
▁stardust	-12580
▁stickers	-12581
▁stirling	-12582
▁straight	-12583
▁strictly	-12584
▁struesel	-12585
▁sulfured	-12586
▁sweetaly	-12587
▁tagalong	-12588
▁tailgate	-12589
▁tarragon	-12590
▁tattooed	-12591
▁teahouse	-12592
▁toppings	-12593
▁tostitos	-12594
▁truwomen	-12595
▁turnvoer	-12596
▁twilight	-12597
▁uncooked	-12598
▁valencia	-12599
▁vigilant	-12600
▁vitabuzz	-12601
▁vitality	-12602
▁vitapack	-12603
▁voortman	-12604
▁waterloo	-12605
▁wheaties	-12606
▁whenever	-12607
▁windmill	-12608
▁workshop	-12609
▁wrigleys	-12610
▁yakisoba	-12611
▁zzzaccor	-12612
▁zzzalpha	-12613
▁zzzawake	-12614
▁zzzbobos	-12615
▁zzzdeans	-12616
▁zzzdouwe	-12617
▁zzzguers	-12618
▁zzzlifes	-12619
▁zzzmilky	-12620
▁zzzsmith	-12621
▁zzzsnack	-12622
▁zzzswiss	-12623
▁zzztates	-12624
▁zzzthink	-12625
▁zzzwhite	-12626
animalcrkr	-12627
berrylmnbl	-12628
buttermilk	-12629
cheesecake	-12630
grilledchs	-12631
icharrones	-12632
kcherlmade	-12633
mldcheddar	-12634
mozzarella	-12635
ridgerated	-12636
▁106089.36	-12637
▁112986.16	-12638
▁allergies	-12639
▁almondina	-12640
▁americano	-12641
▁artessana	-12642
▁assorment	-12643
▁authentic	-12644
▁avalanche	-12645
▁baconwich	-12646
▁biscoffee	-12647
▁blackbird	-12648
▁bloodshot	-12649
▁boardwalk	-12650
▁bobbysues	-12651
▁bodacious	-12652
▁bolognese	-12653
▁botanical	-12654
▁boulanger	-12655
▁brazilian	-12656
▁breadshop	-12657
▁bridgford	-12658
▁capellino	-12659
▁caronlina	-12660
▁cartridge	-12661
▁chamellia	-12662
▁champagne	-12663
▁champlain	-12664
▁chipotles	-12665
▁chipsahoy	-12666
▁chocodile	-12667
▁cinnamilk	-12668
▁cleansing	-12669
▁coldstone	-12670
▁colombian	-12671
▁contained	-12672
▁container	-12673
▁continent	-12674
▁couturier	-12675
▁cracklins	-12676
▁craveable	-12677
▁creamless	-12678
▁creamline	-12679
▁criossant	-12680
▁crocketts	-12681
▁crossiant	-12682
▁crustless	-12683
▁dandelion	-12684
▁decadence	-12685
▁dijonaise	-12686
▁dispenser	-12687
▁doughlish	-12688
▁edelweiss	-12689
▁efficient	-12690
▁elevation	-12691
▁enhancers	-12692
▁enjoytuna	-12693
▁entertain	-12694
▁espressso	-12695
▁excelline	-12696
▁exploding	-12697
▁explosion	-12698
▁explosive	-12699
▁falafelim	-12700
▁fantastix	-12701
▁farmstand	-12702
▁farmstyle	-12703
▁fazeberry	-12704
▁fermented	-12705
▁fettucine	-12706
▁financial	-12707
▁fontanini	-12708
▁footballs	-12709
▁freestyle	-12710
▁gardettos	-12711
▁garlickin	-12712
▁goodbelly	-12713
▁greenlees	-12714
▁greenvile	-12715
▁greystone	-12716
▁gualjillo	-12717
▁happiness	-12718
▁haystacks	-12719
▁hazelnutz	-12720
▁holistics	-12721
▁homefries	-12722
▁homegrown	-12723
▁homeplate	-12724
▁honeybell	-12725
▁honeymoon	-12726
▁icelandic	-12727
▁indulgent	-12728
▁insulated	-12729
▁jackfruit	-12730
▁jalapenos	-12731
▁jicachips	-12732
▁johnvince	-12733
▁kandykake	-12734
▁kimberley	-12735
▁koochikoo	-12736
▁lactation	-12737
▁laminated	-12738
▁lavaquita	-12739
▁lexington	-12740
▁louisiana	-12741
▁macaroons	-12742
▁macchiato	-12743
▁mandarine	-12744
▁mantecada	-12745
▁marcipone	-12746
▁mccormick	-12747
▁medosweet	-12748
▁milkettes	-12749
▁milkstone	-12750
▁mixations	-12751
▁mokaccino	-12752
▁moonshine	-12753
▁munchable	-12754
▁nespresso	-12755
▁netchoice	-12756
▁nicaragua	-12757
▁northwest	-12758
▁notorious	-12759
▁paramount	-12760
▁penguinos	-12761
▁pepporini	-12762
▁perrydell	-12763
▁personals	-12764
▁pinwheels	-12765
▁portlands	-12766
▁principal	-12767
▁provencal	-12768
▁provision	-12769
▁ravishing	-12770
▁refresher	-12771
▁renewable	-12772
▁reynaldos	-12773
▁ristretto	-12774
▁salumeria	-12775
▁sambirano	-12776
▁sandiwich	-12777
▁sandwhich	-12778
▁sanitizer	-12779
▁scrambles	-12780
▁selection	-12781
▁sensation	-12782
▁shamrocks	-12783
▁shortbead	-12784
▁slingshot	-12785
▁smartwell	-12786
▁snackable	-12787
▁snakaroon	-12788
▁southeast	-12789
▁spaghetti	-12790
▁sparkilng	-12791
▁sprinkled	-12792
▁straberry	-12793
▁sunbursts	-12794
▁supereats	-12795
▁sweetwood	-12796
▁tailgater	-12797
▁tealeaves	-12798
▁terranova	-12799
▁throwback	-12800
▁tombstone	-12801
▁tomlinson	-12802
▁treasures	-12803
▁truefruit	-12804
▁universal	-12805
▁unplugged	-12806
▁varietals	-12807
▁vegatable	-12808
▁virginias	-12809
▁warehouse	-12810
▁wellshire	-12811
▁whitefish	-12812
▁wisconson	-12813
▁woodridge	-12814
▁wrazidlos	-12815
▁zestranch	-12816
▁zzzcheese	-12817
▁zzzcombos	-12818
▁zzzcookie	-12819
▁zzzfamous	-12820
▁zzzflavia	-12821
▁zzzfritos	-12822
▁zzzgolden	-12823
▁zzzharney	-12824
▁zzzknotts	-12825
▁zzzlinden	-12826
▁zzzmagnum	-12827
▁zzzmichel	-12828
▁zzznestea	-12829
▁zzzpayday	-12830
▁zzzrefrig	-12831
▁zzzunreal	-12832
chocdrizzle	-12833
estalliance	-12834
grainmuffin	-12835
lemonmatcha	-12836
pomegranate	-12837
ranchervrty	-12838
toastedcoco	-12839
▁39265.0000	-12840
▁abominable	-12841
▁absolutely	-12842
▁adventures	-12843
▁albertsons	-12844
▁apothecary	-12845
▁appetaggio	-12846
▁backpacker	-12847
▁basketball	-12848
▁beanfields	-12849
▁biscottini	-12850
▁bootleggin	-12851
▁breadstick	-12852
▁bruschetta	-12853
▁cannelloni	-12854
▁cannonball	-12855
▁carboncino	-12856
▁cashewmilk	-12857
▁chatfields	-12858
▁chcocolate	-12859
▁cheesedogs	-12860
▁chickadees	-12861
▁chocochino	-12862
▁chococonut	-12863
▁chocolated	-12864
▁chocoloate	-12865
▁chocolotta	-12866
▁chuckwagon	-12867
▁cioccolati	-12868
▁clementime	-12869
▁clementine	-12870
▁clingstone	-12871
▁cloudberry	-12872
▁cloverleaf	-12873
▁convenient	-12874
▁copenhagen	-12875
▁cordillera	-12876
▁cornflakes	-12877
▁craveables	-12878
▁croissants	-12879
▁cuprissimo	-12880
▁dieselpunk	-12881
▁directions	-12882
▁doubleshot	-12883
▁dreamsicle	-12884
▁earthbound	-12885
▁ecuadorian	-12886
▁edoughable	-12887
▁emmentaler	-12888
▁enticement	-12889
▁flapjacked	-12890
▁frostberry	-12891
▁fruitstand	-12892
▁functional	-12893
▁graduation	-12894
▁granulated	-12895
▁grindstone	-12896
▁handisnack	-12897
▁hardcooked	-12898
▁harrisburg	-12899
▁janabanana	-12900
▁lemonlemon	-12901
▁limoncello	-12902
▁longbottom	-12903
▁louisville	-12904
▁margherita	-12905
▁mascarpone	-12906
▁medicinals	-12907
▁milkmakers	-12908
▁mintsticks	-12909
▁motherload	-12910
▁muffuletta	-12911
▁mulitgrain	-12912
▁muscletech	-12913
▁musselmans	-12914
▁musslemans	-12915
▁neapolitan	-12916
▁neufchatel	-12917
▁nutrigrain	-12918
▁outrageous	-12919
▁parisienne	-12920
▁peachberry	-12921
▁peachbubly	-12922
▁pellegrino	-12923
▁perfection	-12924
▁persuasion	-12925
▁phenomenal	-12926
▁pomeganite	-12927
▁popcrinkle	-12928
▁powerhouse	-12929
▁provisions	-12930
▁refreshing	-12931
▁ronnybrook	-12932
▁salchichon	-12933
▁scheckters	-12934
▁shamrocker	-12935
▁shoestring	-12936
▁smithfield	-12937
▁snackfulls	-12938
▁sodastream	-12939
▁sopresatta	-12940
▁specialist	-12941
▁starlights	-12942
▁structured	-12943
▁substitute	-12944
▁summerhill	-12945
▁sunharvest	-12946
▁superberry	-12947
▁sustaining	-12948
▁sweetheart	-12949
▁teasquares	-12950
▁temptation	-12951
▁thermoplan	-12952
▁tradtional	-12953
▁tripleplay	-12954
▁truffletea	-12955
▁unbearably	-12956
▁unsweetend	-12957
▁vinagrette	-12958
▁waterwheel	-12959
▁wheatables	-12960
▁wildflover	-12961
▁wildfowers	-12962
▁wildwonder	-12963
▁wonderland	-12964
▁yellowtail	-12965
▁zzzbarbara	-12966
▁zzzflorida	-12967
▁zzzfolgers	-12968
▁zzzgeneral	-12969
▁zzzgrabeez	-12970
▁zzzhostess	-12971
▁zzzjavafit	-12972
▁zzznabisco	-12973
▁zzzorganic	-12974
▁zzzpacific	-12975
marshmallows	-12976
nutterbutter	-12977
peanutbutter	-12978
srcrmritzchp	-12979
teddygrahams	-12980
▁antioxidant	-12981
▁applesmoked	-12982
▁boysenberry	-12983
▁breadsticks	-12984
▁breezeberry	-12985
▁buttercrisp	-12986
▁celebration	-12987
▁charbroiled	-12988
▁chargrilled	-12989
▁cheeseology	-12990
▁cheesewhite	-12991
▁chocolately	-12992
▁chocolatepb	-12993
▁chocolatier	-12994
▁clodhoppers	-12995
▁cobblestone	-12996
▁coffeehouse	-12997
▁cornerstone	-12998
▁dragonfruit	-12999
▁electrolyte	-13000
▁everyburger	-13001
▁everythings	-13002
▁gingerbubly	-13003
▁griddlecake	-13004
▁hasselbecks	-13005
▁hospitality	-13006
▁huckleberry	-13007
▁impressions	-13008
▁jpbbqssched	-13009
▁liederkranz	-13010
▁marshmellow	-13011
▁milklicious	-13012
▁overwrapped	-13013
▁paleokrunch	-13014
▁panquecitos	-13015
▁plantfusion	-13016
▁purecoconut	-13017
▁quesadillas	-13018
▁refreshment	-13019
▁riverstones	-13020
▁serendipity	-13021
▁soppressata	-13022
▁steakburger	-13023
▁superfruits	-13024
▁supergreens	-13025
▁sweetsticks	-13026
▁swissburger	-13027
▁winterbloom	-13028
▁wintergreen	-13029
▁zzzcatering	-13030
▁zzzdarigold	-13031
▁zzzpapettis	-13032
▁zzzparmalat	-13033
▁zzzskittles	-13034
▁zzzstarkist	-13035
▁zzzsunridge	-13036
crazyrichchoc	-13037
▁#10000060795	-13038
▁#10000060796	-13039
▁baconluxious	-13040
▁blackcurrant	-13041
▁cheddarwurst	-13042
▁chicharrones	-13043
▁chocolatrium	-13044
▁cocoalicious	-13045
▁commonwealth	-13046
▁conversation	-13047
▁countryville	-13048
▁crunchmaster	-13049
▁fingerpickin	-13050
▁flavorsplash	-13051
▁hamantaschen	-13052
▁hamentaschen	-13053
▁honeymustard	-13054
▁igniteenergy	-13055
▁independence	-13056
▁individually	-13057
▁invigorating	-13058
▁jonhsonville	-13059
▁marshmallows	-13060
▁masterpieces	-13061
▁multivitamin	-13062
▁southeastern	-13063
▁thanksgiving	-13064
▁zzzappleways	-13065
▁zzzcharlotte	-13066
▁zzzlandshire	-13067
▁zzzmadelaine	-13068
▁zzzmetromint	-13069
oatdkchocolate	-13070
snickersalmond	-13071
▁33125.8(14.75	-13072
▁cheddarcheese	-13073
▁chocolatemint	-13074
▁entertainment	-13075
▁ghirarardelli	-13076
▁microwaveable	-13077
▁peachpassfrts	-13078
▁refridgerated	-13079
▁supernaturals	-13080
▁unconditional	-13081
▁zzzgreenville	-13082
▁zzzsnackwells	-13083
▁braunschweiger	-13084
▁freshologytuna	-13085
▁organicasaurus	-13086
▁enjoystrawberry	-13087
▁monsterpapillon	-13088
151	-13089
152	-13090
223	-13091
239	-13092
342	-13093
348	-13094
349	-13095
352	-13096
370	-13097
376	-13098
377	-13099
378	-13100
380	-13101
384	-13102
415	-13103
423	-13104
430	-13105
486	-13106
487	-13107
534	-13108
551	-13109
553	-13110
576	-13111
586	-13112
615	-13113
634	-13114
639	-13115
648	-13116
662	-13117
729	-13118
766	-13119
780	-13120
786	-13121
823	-13122
824	-13123
853	-13124
858	-13125
892	-13126
895	-13127
898	-13128
929	-13129
936	-13130
951	-13131
970	-13132
971	-13133
992	-13134
aja	-13135
azm	-13136
bka	-13137
jcc	-13138
niv	-13139
smg	-13140
who	-13141
zyr	-13142
0030	-13143
0049	-13144
0071	-13145
0078	-13146
0091	-13147
0147	-13148
0151	-13149
0194	-13150
0233	-13151
0261	-13152
0263	-13153
0266	-13154
0278	-13155
0296	-13156
0320	-13157
0336	-13158
0471	-13159
0551	-13160
0570	-13161
0596	-13162
0626	-13163
0651	-13164
0676	-13165
0760	-13166
0795	-13167
0796	-13168
0821	-13169
0872	-13170
0878	-13171
0880	-13172
0930	-13173
0931	-13174
0938	-13175
0949	-13176
0951	-13177
0953	-13178
0993	-13179
0996	-13180
1071	-13181
1131	-13182
1153	-13183
1231	-13184
1368	-13185
1372	-13186
1377	-13187
2000	-13188
2003	-13189
2120	-13190
2536	-13191
3061	-13192
3089	-13193
3108	-13194
3120	-13195
4041	-13196
4527	-13197
4551	-13198
4800	-13199
310	-13200
52)	-13201
699	-13202
eps	-13203
nez	-13204
oxo	-13205
0110	-13206
0791	-13207
0859	-13208
1859	-13209
2011	-13210
3403	-13211
51.1	-13212
5673	-13213
5861	-13214
5862	-13215
5881	-13216
5883	-13217
6-16	-13218
6538	-13219
6580	-13220
7/48	-13221
7359	-13222
7421	-13223
7668	-13224
8001	-13225
8152	-13226
8172	-13227
8177	-13228
86.1	-13229
9120	-13230
9920	-13231
aica	-13232
aiya	-13233
anks	-13234
ayzy	-13235
chne	-13236
ddyg	-13237
douw	-13238
duct	-13239
ermo	-13240
etox	-13241
fras	-13242
iscs	-13243
ives	-13244
kiso	-13245
lbdw	-13246
lbps	-13247
lbsn	-13248
leep	-13249
leph	-13250
lief	-13251
lipz	-13252
litz	-13253
llyr	-13254
moke	-13255
nado	-13256
oxox	-13257
oxta	-13258
paco	-13259
paka	-13260
picn	-13261
proo	-13262
rara	-13263
rasd	-13264
razy	-13265
redi	-13266
rhon	-13267
rips	-13268
runn	-13269
ssmo	-13270
tpep	-13271
uado	-13272
ubka	-13273
uisi	-13274
ulee	-13275
utsi	-13276
utsy	-13277
vans	-13278
weig	-13279
whss	-13280
xbry	-13281
ynal	-13282
ynam	-13283
zola	-13284
▁#96	-13285
▁004	-13286
▁024	-13287
▁028	-13288
▁043	-13289
▁048	-13290
▁056	-13291
▁065	-13292
▁115	-13293
▁11:	-13294
▁133	-13295
▁134	-13296
▁137	-13297
▁144	-13298
▁148	-13299
450	-13300
741	-13301
742	-13302
743	-13303
748	-13304
88/	-13305
950	-13306
auv	-13307
uji	-13308
0022	-13309
0274	-13310
0288	-13311
0450	-13312
0650	-13313
1374	-13314
1439	-13315
3002	-13316
36.8	-13317
8800	-13318
8803	-13319
8804	-13320
8805	-13321
8811	-13322
8883	-13323
auar	-13324
hmal	-13325
inca	-13326
kami	-13327
larb	-13328
olly	-13329
osep	-13330
▁#28	-13331
▁#29	-13332
▁#37	-13333
▁#53	-13334
▁#88	-13335
▁172	-13336
▁178	-13337
▁194	-13338
▁195	-13339
▁197	-13340
▁292	-13341
▁298	-13342
▁3/4	-13343
▁331	-13344
▁332	-13345
▁35:	-13346
▁361	-13347
▁362	-13348
▁364	-13349
▁374	-13350
▁384	-13351
▁532	-13352
▁533	-13353
▁663	-13354
▁674	-13355
▁684	-13356
▁715	-13357
▁717	-13358
▁732	-13359
▁769	-13360
▁788	-13361
▁852	-13362
▁931	-13363
▁949	-13364
▁964	-13365
▁969	-13366
▁978	-13367
▁984	-13368
▁986	-13369
▁987	-13370
▁989	-13371
▁abs	-13372
▁aga	-13373
▁agu	-13374
▁cep	-13375
▁gau	-13376
▁isc	-13377
▁lud	-13378
▁owy	-13379
▁rhm	-13380
▁srd	-13381
▁web	-13382
▁xxx	-13383
02635	-13384
02661	-13385
03710	-13386
03713	-13387
040.1	-13388
10029	-13389
10036	-13390
10063	-13391
48029	-13392
749.5	-13393
769/6	-13394
86.16	-13395
abeth	-13396
alsam	-13397
amesa	-13398
ampla	-13399
144	-13400
149	-13401
163	-13402
164	-13403
166	-13404
187	-13405
189	-13406
192	-13407
199	-13408
272	-13409
273	-13410
278	-13411
316	-13412
373	-13413
427	-13414
519	-13415
527	-13416
573	-13417
616	-13418
618	-13419
718	-13420
727	-13421
733	-13422
734	-13423
735	-13424
736	-13425
738	-13426
739	-13427
779	-13428
784	-13429
827	-13430
914	-13431
918	-13432
919	-13433
bev	-13434
0016	-13435
0214	-13436
0627	-13437
1881	-13438
3497	-13439
ampb	-13440
cans	-13441
esca	-13442
luau	-13443
mchi	-13444
odsh	-13445
okos	-13446
oosa	-13447
otbe	-13448
▁119	-13449
▁143	-13450
▁173	-13451
▁452	-13452
▁639	-13453
▁714	-13454
▁716	-13455
▁918	-13456
▁adv	-13457
▁ath	-13458
▁atk	-13459
amela	-13460
anean	-13461
anukk	-13462
apett	-13463
arney	-13464
arrow	-13465
asabi	-13466
asada	-13467
asqui	-13468
astel	-13469
atwur	-13470
ayusa	-13471
azmin	-13472
balls	-13473
bomin	-13474
calat	-13475
calli	-13476
catra	-13477
cotre	-13478
dalen	-13479
diana	-13480
dible	-13481
earth	-13482
eball	-13483
ecary	-13484
eddar	-13485
endsh	-13486
erbet	-13487
erced	-13488
esame	-13489
ettan	-13490
felim	-13491
fonte	-13492
gbert	-13493
gires	-13494
henom	-13495
ibiza	-13496
ience	-13497
imoth	-13498
inado	-13499
185	-13500
218	-13501
318	-13502
383	-13503
45)	-13504
518	-13505
595	-13506
683	-13507
833	-13508
835	-13509
883	-13510
kno	-13511
nox	-13512
oha	-13513
pno	-13514
yfi	-13515
▁ii	-13516
0420	-13517
0518	-13518
83.2	-13519
atfi	-13520
evia	-13521
eyno	-13522
gory	-13523
head	-13524
lond	-13525
nock	-13526
noli	-13527
nott	-13528
nvie	-13529
olks	-13530
ranz	-13531
ttos	-13532
▁ase	-13533
▁asp	-13534
▁daz	-13535
▁ime	-13536
▁mym	-13537
▁owa	-13538
10071	-13539
ayden	-13540
crets	-13541
inara	-13542
incip	-13543
inely	-13544
inewa	-13545
inwhe	-13546
iotic	-13547
ircle	-13548
iscus	-13549
isket	-13550
iterr	-13551
ithfi	-13552
ivers	-13553
jores	-13554
kippy	-13555
laras	-13556
lecks	-13557
leeve	-13558
lesmo	-13559
litas	-13560
londi	-13561
lonel	-13562
loney	-13563
loppy	-13564
lytes	-13565
mines	-13566
monwe	-13567
mphon	-13568
nness	-13569
odiak	-13570
olong	-13571
ongbo	-13572
ontan	-13573
onuts	-13574
opwaf	-13575
orats	-13576
orgon	-13577
oskos	-13578
oufay	-13579
ougat	-13580
ozeng	-13581
pease	-13582
pitas	-13583
ptain	-13584
rella	-13585
riend	-13586
rimal	-13587
rites	-13588
rolli	-13589
sltpe	-13590
tball	-13591
uddha	-13592
uemor	-13593
uinos	-13594
uiter	-13595
umbia	-13596
umbly	-13597
umbpr	-13598
umbus	-13599
191	-13600
581	-13601
814	-13602
815	-13603
817	-13604
881	-13605
981	-13606
iva	-13607
vaq	-13608
wdy	-13609
0281	-13610
50.2	-13611
81.4	-13612
fits	-13613
iorn	-13614
orns	-13615
rava	-13616
ybee	-13617
zits	-13618
▁#41	-13619
▁emm	-13620
▁emo	-13621
anova	-13622
cobee	-13623
dykey	-13624
erios	-13625
etcho	-13626
igila	-13627
ioios	-13628
itsys	-13629
kevie	-13630
mritz	-13631
ornad	-13632
rabee	-13633
reams	-13634
rybee	-13635
ummus	-13636
ungle	-13637
unior	-13638
urate	-13639
urban	-13640
urope	-13641
urray	-13642
ursin	-13643
urste	-13644
usset	-13645
ussle	-13646
utors	-13647
utsii	-13648
vazza	-13649
violi	-13650
voron	-13651
ynald	-13652
ynamo	-13653
yseed	-13654
zetti	-13655
▁#001	-13656
▁#005	-13657
▁#029	-13658
▁#039	-13659
▁#099	-13660
▁#139	-13661
▁#144	-13662
▁#146	-13663
▁#158	-13664
▁#189	-13665
▁#201	-13666
▁#226	-13667
▁#400	-13668
▁#403	-13669
▁#414	-13670
▁#716	-13671
▁(.45	-13672
▁(33.	-13673
▁(43.	-13674
▁1017	-13675
▁1025	-13676
▁1129	-13677
▁1343	-13678
▁1516	-13679
▁1566	-13680
▁2102	-13681
▁2103	-13682
▁3002	-13683
▁3105	-13684
▁3107	-13685
▁3116	-13686
▁3312	-13687
▁3574	-13688
▁3911	-13689
▁4203	-13690
▁4811	-13691
▁5008	-13692
▁5009	-13693
▁5095	-13694
▁5337	-13695
▁5501	-13696
▁7101	-13697
▁7104	-13698
▁7358	-13699
(32	-13700
132	-13701
133	-13702
590	-13703
613	-13704
713	-13705
dib	-13706
tiv	-13707
0374	-13708
1375	-13709
2513	-13710
3427	-13711
72.5	-13712
arni	-13713
chik	-13714
dean	-13715
erde	-13716
hams	-13717
ikki	-13718
ixer	-13719
ixir	-13720
onde	-13721
quik	-13722
usem	-13723
ushy	-13724
uthe	-13725
uthw	-13726
▁#39	-13727
▁167	-13728
▁213	-13729
▁913	-13730
▁bix	-13731
▁kef	-13732
▁kev	-13733
▁nik	-13734
▁nix	-13735
▁nuk	-13736
▁wti	-13737
antib	-13738
aoher	-13739
ather	-13740
aylor	-13741
dyarm	-13742
esher	-13743
ibles	-13744
innyb	-13745
innym	-13746
itaya	-13747
osher	-13748
ushro	-13749
▁#413	-13750
▁7388	-13751
▁9352	-13752
▁abso	-13753
▁acti	-13754
▁adzu	-13755
▁alps	-13756
▁anci	-13757
▁apon	-13758
▁auss	-13759
▁avoc	-13760
▁berg	-13761
▁bial	-13762
▁bilo	-13763
▁bloo	-13764
▁bohe	-13765
▁buen	-13766
▁buis	-13767
▁byrn	-13768
▁chau	-13769
▁cila	-13770
▁comf	-13771
▁cord	-13772
▁cosm	-13773
▁craz	-13774
▁dago	-13775
▁divv	-13776
▁earn	-13777
▁ecla	-13778
▁edit	-13779
▁empi	-13780
▁ende	-13781
▁evap	-13782
▁favo	-13783
▁ferm	-13784
▁fett	-13785
▁frsn	-13786
▁fuzz	-13787
▁garn	-13788
▁garu	-13789
▁gerh	-13790
▁geys	-13791
▁goog	-13792
▁guar	-13793
▁hans	-13794
▁hors	-13795
▁hugg	-13796
▁hydr	-13797
▁jazz	-13798
▁jemi	-13799
113	-13800
118	-13801
438	-13802
611	-13803
811	-13804
916	-13805
dfr	-13806
ibb	-13807
ibm	-13808
ocr	-13809
0011	-13810
0111	-13811
0299	-13812
1223	-13813
2006	-13814
ambu	-13815
bbit	-13816
cram	-13817
crat	-13818
eful	-13819
erky	-13820
fran	-13821
gium	-13822
heel	-13823
lbcr	-13824
ocac	-13825
ocit	-13826
ocre	-13827
onfr	-13828
orms	-13829
outh	-13830
uefr	-13831
▁297	-13832
▁acc	-13833
althy	-13834
assfr	-13835
bbler	-13836
conza	-13837
count	-13838
crack	-13839
crink	-13840
ealth	-13841
edium	-13842
illow	-13843
lecti	-13844
lectr	-13845
lects	-13846
llect	-13847
meyer	-13848
nells	-13849
ondon	-13850
▁5016	-13851
▁blus	-13852
▁bobb	-13853
▁cowg	-13854
▁debb	-13855
▁fitn	-13856
▁fitp	-13857
▁gibb	-13858
▁jenn	-13859
▁juli	-13860
▁jume	-13861
▁juni	-13862
▁karo	-13863
▁kikk	-13864
▁kimm	-13865
▁kore	-13866
▁kosm	-13867
▁ludw	-13868
▁madh	-13869
▁mamm	-13870
▁manu	-13871
▁moca	-13872
▁nibb	-13873
▁nord	-13874
▁penn	-13875
▁pral	-13876
▁purp	-13877
▁rabb	-13878
▁rebb	-13879
▁refr	-13880
▁regu	-13881
▁remo	-13882
▁ribb	-13883
▁robb	-13884
▁rugg	-13885
▁savo	-13886
▁selt	-13887
▁sene	-13888
▁serr	-13889
▁sono	-13890
▁stea	-13891
▁stef	-13892
▁tatt	-13893
▁teri	-13894
▁ugli	-13895
▁upti	-13896
▁vien	-13897
▁volp	-13898
▁wond	-13899
111	-13900
186	-13901
311	-13902
411	-13903
574	-13904
byb	-13905
eca	-13906
occ	-13907
rkf	-13908
rkr	-13909
ydr	-13910
chev	-13911
dwal	-13912
elsi	-13913
legr	-13914
megr	-13915
mise	-13916
nche	-13917
nson	-13918
pler	-13919
rise	-13920
tche	-13921
tler	-13922
wens	-13923
yche	-13924
ydra	-13925
ydri	-13926
ydro	-13927
▁eli	-13928
▁elm	-13929
▁elv	-13930
06089	-13931
arigo	-13932
coise	-13933
cryst	-13934
ctaid	-13935
dried	-13936
edens	-13937
ensat	-13938
ensbo	-13939
fried	-13940
mpson	-13941
nings	-13942
ntain	-13943
reens	-13944
round	-13945
uller	-13946
usaid	-13947
veryd	-13948
vings	-13949
▁harn	-13950
▁harr	-13951
▁harv	-13952
▁jens	-13953
▁sarg	-13954
▁sche	-13955
▁snyd	-13956
/48004	-13957
060795	-13958
100105	-13959
100629	-13960
100719	-13961
100739	-13962
100805	-13963
100816	-13964
117/48	-13965
122/48	-13966
125.8(	-13967
4936.8	-13968
889.35	-13969
accino	-13970
aceful	-13971
adence	-13972
adlers	-13973
albani	-13974
alfour	-13975
alinas	-13976
alking	-13977
amrock	-13978
annonb	-13979
antica	-13980
appers	-13981
aralli	-13982
aretto	-13983
arthbo	-13984
ascade	-13985
assimo	-13986
asteur	-13987
asures	-13988
attler	-13989
avenly	-13990
banana	-13991
bernay	-13992
browns	-13993
cadian	-13994
cessed	-13995
chweig	-13996
consin	-13997
conson	-13998
covery	-13999
413	-14000
27.4	-14001
arah	-14002
eads	-14003
eled	-14004
four	-14005
lbtr	-14006
lson	-14007
ouls	-14008
trac	-14009
tric	-14010
ukes	-14011
ulls	-14012
umbs	-14013
▁321	-14014
▁323	-14015
▁326	-14016
▁329	-14017
▁ols	-14018
▁sko	-14019
10032	-14020
50.35	-14021
arlan	-14022
carth	-14023
citos	-14024
elkes	-14025
hment	-14026
icorn	-14027
istic	-14028
istie	-14029
mment	-14030
ozzar	-14031
rainm	-14032
rapes	-14033
ripes	-14034
upour	-14035
urals	-14036
yside	-14037
zzled	-14038
▁arct	-14039
▁arte	-14040
▁arth	-14041
▁arug	-14042
▁baob	-14043
▁belv	-14044
▁bonn	-14045
▁conf	-14046
▁extr	-14047
▁nonn	-14048
▁nonp	-14049
acious	-14050
ddygra	-14051
derful	-14052
dewind	-14053
dition	-14054
dnight	-14055
ducers	-14056
eebler	-14057
eensbo	-14058
ehouse	-14059
eldora	-14060
elines	-14061
ellowf	-14062
ellshi	-14063
elsius	-14064
enized	-14065
ential	-14066
erator	-14067
eremia	-14068
erkran	-14069
ermaid	-14070
erried	-14071
escafe	-14072
eseala	-14073
esquar	-14074
essert	-14075
etties	-14076
fectly	-14077
ffeina	-14078
ffeine	-14079
forman	-14080
friger	-14081
fruits	-14082
hanced	-14083
hancer	-14084
hubarb	-14085
ichler	-14086
icrowa	-14087
ignite	-14088
ilgate	-14089
illera	-14090
incipe	-14091
ingtea	-14092
inkleb	-14093
ipchee	-14094
ipcorn	-14095
ipfizz	-14096
iplier	-14097
irgini	-14098
iskies	-14099
.09	-14100
070	-14101
077	-14102
079	-14103
090	-14104
092	-14105
095	-14106
096	-14107
097	-14108
098	-14109
099	-14110
207	-14111
209	-14112
252	-14113
254	-14114
255	-14115
256	-14116
307	-14117
309	-14118
325	-14119
409	-14120
507	-14121
609	-14122
707	-14123
709	-14124
807	-14125
809	-14126
925	-14127
dae	-14128
fio	-14129
ioc	-14130
ioi	-14131
iox	-14132
nga	-14133
▁09	-14134
.625	-14135
0027	-14136
0107	-14137
0125	-14138
0472	-14139
0521	-14140
0671	-14141
0701	-14142
0704	-14143
0705	-14144
0706	-14145
0870	-14146
0901	-14147
1207	-14148
2780	-14149
7351	-14150
atio	-14151
ilga	-14152
lano	-14153
loda	-14154
ouda	-14155
▁057	-14156
▁107	-14157
▁209	-14158
▁aio	-14159
▁cio	-14160
07100	-14161
achio	-14162
anche	-14163
ancho	-14164
avina	-14165
freed	-14166
kashi	-14167
urina	-14168
▁#107	-14169
▁6501	-14170
▁halv	-14171
▁nebu	-14172
▁outt	-14173
▁walm	-14174
anchor	-14175
andmas	-14176
ashion	-14177
intage	-14178
iomilk	-14179
istine	-14180
istmas	-14181
istrib	-14182
iteats	-14183
iterie	-14184
iterra	-14185
itting	-14186
jacked	-14187
jonais	-14188
kchoco	-14189
kedoke	-14190
keview	-14191
kfruit	-14192
lectro	-14193
letpro	-14194
liance	-14195
liette	-14196
londie	-14197
lonely	-14198
losion	-14199
.31	-14200
0.3	-14201
1.3	-14202
265	-14203
512	-14204
550	-14205
65.	-14206
651	-14207
652	-14208
674	-14209
765	-14210
965	-14211
awa	-14212
bae	-14213
chm	-14214
cit	-14215
cue	-14216
doo	-14217
ned	-14218
riv	-14219
tos	-14220
urf	-14221
usi	-14222
uys	-14223
wie	-14224
ysi	-14225
0165	-14226
0430	-14227
0709	-14228
0937	-14229
6500	-14230
acka	-14231
amba	-14232
armh	-14233
baco	-14234
broo	-14235
deck	-14236
eldo	-14237
ensi	-14238
ield	-14239
lami	-14240
lanc	-14241
leba	-14242
leto	-14243
mmin	-14244
oley	-14245
parm	-14246
sive	-14247
tina	-14248
tive	-14249
tton	-14250
ubba	-14251
ucie	-14252
uddh	-14253
unce	-14254
vive	-14255
zzit	-14256
▁322	-14257
▁815	-14258
▁edi	-14259
▁geh	-14260
▁hac	-14261
▁soo	-14262
▁tet	-14263
▁tex	-14264
armin	-14265
mebro	-14266
uetta	-14267
unchi	-14268
▁#136	-14269
▁geor	-14270
▁medi	-14271
▁minc	-14272
▁oath	-14273
▁tedd	-14274
▁tole	-14275
▁vina	-14276
4318.6	-14277
ashbro	-14278
lugged	-14279
luster	-14280
megran	-14281
mhurst	-14282
mphony	-14283
ocream	-14284
okside	-14285
ologyt	-14286
onight	-14287
ontana	-14288
ontina	-14289
oodrid	-14290
oothie	-14291
oplait	-14292
oppers	-14293
orated	-14294
orilly	-14295
oritos	-14296
orning	-14297
orsels	-14298
ouches	-14299
7-	-14300
.82	-14301
.84	-14302
0.8	-14303
3.8	-14304
avo	-14305
bst	-14306
buc	-14307
dum	-14308
hlu	-14309
hum	-14310
iri	-14311
izz	-14312
lum	-14313
olu	-14314
pay	-14315
raf	-14316
ros	-14317
sti	-14318
sts	-14319
tim	-14320
tst	-14321
uic	-14322
ulc	-14323
uls	-14324
vea	-14325
vex	-14326
voc	-14327
xie	-14328
zac	-14329
zst	-14330
zzi	-14331
▁ef	-14332
▁rp	-14333
.75)	-14334
0810	-14335
adst	-14336
asil	-14337
eart	-14338
eyon	-14339
inum	-14340
lara	-14341
lbpr	-14342
lues	-14343
lugg	-14344
mack	-14345
nana	-14346
oons	-14347
orre	-14348
orto	-14349
rick	-14350
roul	-14351
rove	-14352
test	-14353
umro	-14354
vend	-14355
▁193	-14356
▁451	-14357
▁bum	-14358
▁frf	-14359
▁hum	-14360
▁meo	-14361
▁mif	-14362
▁mim	-14363
▁nem	-14364
▁num	-14365
▁ric	-14366
▁rin	-14367
▁tul	-14368
48000	-14369
antuc	-14370
conic	-14371
ecake	-14372
ibble	-14373
sting	-14374
ummer	-14375
▁(10.	-14376
▁1008	-14377
▁baut	-14378
▁bazz	-14379
▁bing	-14380
▁bost	-14381
▁gela	-14382
▁gira	-14383
▁kino	-14384
▁midd	-14385
▁sunf	-14386
▁swee	-14387
anders	-14388
anitas	-14389
orager	-14390
ovanni	-14391
owball	-14392
oxtail	-14393
pareil	-14394
pecial	-14395
psules	-14396
rained	-14397
rapped	-14398
retsch	-14399
bs	-14400
fd	-14401
nv	-14402
pk	-14403
.74	-14404
.77	-14405
0.7	-14406
137	-14407
3.7	-14408
305	-14409
7.7	-14410
801	-14411
859	-14412
dul	-14413
glu	-14414
mep	-14415
nqu	-14416
opo	-14417
psn	-14418
rul	-14419
uld	-14420
ulk	-14421
▁ai	-14422
▁sv	-14423
0109	-14424
0941	-14425
acko	-14426
allz	-14427
arme	-14428
ased	-14429
enti	-14430
ffai	-14431
ilad	-14432
inin	-14433
onsh	-14434
ouet	-14435
oure	-14436
reez	-14437
rele	-14438
rner	-14439
roel	-14440
uage	-14441
uben	-14442
uego	-14443
ulle	-14444
▁#76	-14445
▁(6.	-14446
▁aff	-14447
▁cru	-14448
▁foo	-14449
▁how	-14450
▁jul	-14451
▁mea	-14452
▁rei	-14453
▁rel	-14454
▁roj	-14455
▁sha	-14456
▁shi	-14457
▁sle	-14458
▁spo	-14459
▁tou	-14460
anuts	-14461
cured	-14462
icing	-14463
inter	-14464
mondm	-14465
monle	-14466
urity	-14467
ysues	-14468
▁#131	-14469
▁(12.	-14470
▁aleg	-14471
▁carn	-14472
▁crin	-14473
▁cris	-14474
▁deni	-14475
▁hamp	-14476
▁pean	-14477
▁spen	-14478
▁spin	-14479
▁spit	-14480
▁stou	-14481
▁uncr	-14482
achios	-14483
artine	-14484
dberry	-14485
pberry	-14486
precha	-14487
richch	-14488
rirock	-14489
risbur	-14490
rizzle	-14491
rocker	-14492
rolyte	-14493
rotter	-14494
rottle	-14495
roweat	-14496
sberry	-14497
starki	-14498
suckle	-14499
5"	-14500
eu	-14501
gb	-14502
.26	-14503
.27	-14504
043	-14505
250	-14506
5.3	-14507
6.3	-14508
arf	-14509
azz	-14510
cob	-14511
dri	-14512
ein	-14513
etc	-14514
ffs	-14515
kad	-14516
lag	-14517
oug	-14518
rki	-14519
tas	-14520
tep	-14521
ubk	-14522
uin	-14523
0503	-14524
0655	-14525
akla	-14526
ariz	-14527
barb	-14528
eeth	-14529
eiss	-14530
elke	-14531
hick	-14532
ickp	-14533
ickw	-14534
ipfi	-14535
lett	-14536
lobe	-14537
loum	-14538
mili	-14539
mons	-14540
ooki	-14541
pick	-14542
raff	-14543
rech	-14544
reus	-14545
righ	-14546
roph	-14547
runa	-14548
tana	-14549
tand	-14550
teel	-14551
teve	-14552
▁bev	-14553
▁lak	-14554
▁lau	-14555
▁mit	-14556
▁rec	-14557
▁rol	-14558
▁roo	-14559
▁rov	-14560
abrit	-14561
anded	-14562
andis	-14563
andra	-14564
batta	-14565
enand	-14566
endip	-14567
eselp	-14568
ffers	-14569
icken	-14570
ickla	-14571
ucers	-14572
yered	-14573
▁barc	-14574
▁bolo	-14575
▁cali	-14576
▁crit	-14577
▁mexi	-14578
▁pand	-14579
▁polv	-14580
▁regg	-14581
▁sola	-14582
ickers	-14583
igiorn	-14584
ilders	-14585
lebrit	-14586
quator	-14587
tained	-14588
tainer	-14589
therlo	-14590
trista	-14591
ubbard	-14592
ubilee	-14593
uffalo	-14594
ugared	-14595
ulgent	-14596
umbles	-14597
umbold	-14598
umiano	-14599
nw	-14600
zk	-14601
.72	-14602
11/	-14603
12-	-14604
4.8	-14605
aqu	-14606
cou	-14607
foo	-14608
iew	-14609
jic	-14610
kar	-14611
kiw	-14612
mis	-14613
ppa	-14614
ppu	-14615
rre	-14616
sto	-14617
tig	-14618
too	-14619
ysu	-14620
zoo	-14621
▁bi	-14622
81.1	-14623
8808	-14624
achu	-14625
ackl	-14626
akeu	-14627
anif	-14628
arad	-14629
aras	-14630
arig	-14631
arml	-14632
arty	-14633
bott	-14634
cers	-14635
clif	-14636
dite	-14637
elie	-14638
iann	-14639
igan	-14640
itte	-14641
ldch	-14642
lopp	-14643
mers	-14644
oody	-14645
ppor	-14646
ripp	-14647
roat	-14648
rost	-14649
tite	-14650
uers	-14651
uite	-14652
upst	-14653
yers	-14654
zzzt	-14655
▁alc	-14656
▁frd	-14657
▁oni	-14658
▁ram	-14659
▁rea	-14660
▁tem	-14661
▁woo	-14662
alant	-14663
alkin	-14664
almon	-14665
anite	-14666
ccola	-14667
ellsw	-14668
errya	-14669
ewers	-14670
icili	-14671
iteen	-14672
orden	-14673
stack	-14674
unite	-14675
zzzth	-14676
▁ethi	-14677
▁magd	-14678
▁orte	-14679
▁stum	-14680
▁whoo	-14681
100804	-14682
derick	-14683
icoise	-14684
umpkin	-14685
undber	-14686
underb	-14687
unleys	-14688
untain	-14689
urless	-14690
usions	-14691
ussell	-14692
usseto	-14693
ussett	-14694
ussian	-14695
ussies	-14696
ustain	-14697
utlers	-14698
utterf	-14699
df	-14700
gs	-14701
069	-14702
799	-14703
adn	-14704
adv	-14705
adz	-14706
alu	-14707
bad	-14708
cht	-14709
dda	-14710
ddi	-14711
egg	-14712
ggn	-14713
ggo	-14714
ggp	-14715
iad	-14716
idd	-14717
leo	-14718
mpp	-14719
oir	-14720
pag	-14721
sad	-14722
slb	-14723
ssi	-14724
tat	-14725
upp	-14726
wni	-14727
yla	-14728
▁kh	-14729
0424	-14730
0605	-14731
acad	-14732
adis	-14733
airi	-14734
anto	-14735
arkl	-14736
avri	-14737
cing	-14738
dded	-14739
ersh	-14740
eyco	-14741
fers	-14742
fing	-14743
gges	-14744
ggis	-14745
ggla	-14746
hite	-14747
inel	-14748
ingt	-14749
lead	-14750
lesa	-14751
mead	-14752
reun	-14753
ridd	-14754
sels	-14755
torn	-14756
zers	-14757
▁288	-14758
▁dad	-14759
▁kiw	-14760
▁mik	-14761
▁sas	-14762
achin	-14763
aring	-14764
astch	-14765
bucha	-14766
cocon	-14767
cooki	-14768
dding	-14769
erful	-14770
erryl	-14771
ilett	-14772
ilite	-14773
ingte	-14774
ripen	-14775
river	-14776
▁hers	-14777
▁solb	-14778
ackers	-14779
acking	-14780
estbar	-14781
ouette	-14782
tberry	-14783
umbled	-14784
uttter	-14785
vanted	-14786
veller	-14787
verett	-14788
versat	-14789
vittle	-14790
wberry	-14791
wiches	-14792
yience	-14793
ystone	-14794
▁#1208	-14795
▁#1411	-14796
▁#2019	-14797
▁#5136	-14798
▁(19.1	-14799
#9	-14800
yv	-14801
.30	-14802
.38	-14803
.76	-14804
1.8	-14805
659	-14806
926	-14807
arc	-14808
ddl	-14809
dor	-14810
eac	-14811
elw	-14812
erv	-14813
eve	-14814
ggs	-14815
gil	-14816
gli	-14817
gor	-14818
ima	-14819
lib	-14820
liq	-14821
liv	-14822
mad	-14823
odd	-14824
oli	-14825
oor	-14826
orb	-14827
orc	-14828
orx	-14829
pli	-14830
rli	-14831
wor	-14832
xch	-14833
0081	-14834
0127	-14835
acho	-14836
achy	-14837
arie	-14838
buco	-14839
erog	-14840
gela	-14841
icto	-14842
inor	-14843
iole	-14844
ipli	-14845
lico	-14846
liet	-14847
nick	-14848
orin	-14849
oron	-14850
rach	-14851
raid	-14852
reis	-14853
road	-14854
tach	-14855
teli	-14856
▁ach	-14857
▁bli	-14858
▁huc	-14859
▁jac	-14860
▁laj	-14861
▁poc	-14862
▁sit	-14863
▁vis	-14864
▁zuc	-14865
achip	-14866
aleok	-14867
anber	-14868
armal	-14869
icach	-14870
ishus	-14871
orter	-14872
▁(300	-14873
▁banj	-14874
▁ches	-14875
▁crem	-14876
▁plac	-14877
▁sain	-14878
▁svel	-14879
▁tera	-14880
ancher	-14881
berely	-14882
rutter	-14883
tional	-14884
▁(27.1	-14885
▁(3.24	-14886
▁10007	-14887
▁10009	-14888
▁10299	-14889
▁13359	-14890
▁15615	-14891
▁15633	-14892
▁15688	-14893
▁15736	-14894
▁20076	-14895
▁20102	-14896
▁20334	-14897
▁63951	-14898
▁78277	-14899
3%	-14900
.97	-14901
5.9	-14902
agd	-14903
agu	-14904
eag	-14905
eor	-14906
ffu	-14907
hoc	-14908
iag	-14909
imp	-14910
kul	-14911
lav	-14912
mag	-14913
nex	-14914
oag	-14915
ogg	-14916
por	-14917
pos	-14918
reg	-14919
rge	-14920
roz	-14921
uag	-14922
uay	-14923
wag	-14924
yor	-14925
▁70	-14926
36.2	-14927
8004	-14928
ackf	-14929
acky	-14930
agic	-14931
agre	-14932
andw	-14933
angy	-14934
anie	-14935
arks	-14936
elwe	-14937
erag	-14938
ersn	-14939
etag	-14940
hack	-14941
iato	-14942
icag	-14943
ingl	-14944
iser	-14945
isla	-14946
lied	-14947
oods	-14948
orit	-14949
orte	-14950
rack	-14951
rill	-14952
swee	-14953
urip	-14954
wnie	-14955
zzza	-14956
▁gog	-14957
▁hel	-14958
▁jel	-14959
▁kan	-14960
▁kar	-14961
▁kic	-14962
▁kin	-14963
▁koz	-14964
▁kun	-14965
▁kut	-14966
▁loc	-14967
▁reu	-14968
▁rok	-14969
arker	-14970
arkes	-14971
arkin	-14972
berns	-14973
ingst	-14974
ipack	-14975
leary	-14976
limon	-14977
loack	-14978
orkie	-14979
otics	-14980
▁cele	-14981
▁enli	-14982
▁jers	-14983
▁ries	-14984
▁spra	-14985
▁spun	-14986
▁teat	-14987
haotic	-14988
illiam	-14989
ortuna	-14990
▁10016	-14991
▁90704	-14992
▁90706	-14993
▁98-13	-14994
▁addic	-14995
▁again	-14996
▁alfre	-14997
▁antib	-14998
▁aquaf	-14999
hh	-15000
nn	-15001
3.5	-15002
501	-15003
aco	-15004
chw	-15005
chy	-15006
dos	-15007
ech	-15008
err	-15009
eur	-15010
fai	-15011
hou	-15012
ipl	-15013
ipo	-15014
lbd	-15015
lbp	-15016
mch	-15017
nch	-15018
nme	-15019
ois	-15020
rav	-15021
rch	-15022
tun	-15023
uiz	-15024
usy	-15025
wys	-15026
yas	-15027
yoo	-15028
zch	-15029
▁ei	-15030
▁tn	-15031
▁va	-15032
0045	-15033
0173	-15034
acch	-15035
alch	-15036
aler	-15037
arip	-15038
artm	-15039
asch	-15040
avor	-15041
chun	-15042
edge	-15043
elia	-15044
ered	-15045
eser	-15046
etch	-15047
ffal	-15048
hark	-15049
ipac	-15050
ipco	-15051
ipon	-15052
jich	-15053
lech	-15054
ming	-15055
rych	-15056
stra	-15057
unli	-15058
▁(87	-15059
▁405	-15060
▁aco	-15061
▁ech	-15062
▁joo	-15063
▁och	-15064
▁rob	-15065
▁sti	-15066
leson	-15067
olone	-15068
ortys	-15069
parag	-15070
unter	-15071
zzzor	-15072
▁bien	-15073
▁blai	-15074
▁cepa	-15075
▁eter	-15076
▁fatt	-15077
▁flop	-15078
▁fron	-15079
▁redw	-15080
▁saus	-15081
▁shak	-15082
▁shre	-15083
▁smor	-15084
▁spre	-15085
▁whal	-15086
eberry	-15087
telier	-15088
uthern	-15089
▁arman	-15090
▁asept	-15091
▁ashap	-15092
▁atala	-15093
▁athen	-15094
▁avala	-15095
▁babyb	-15096
▁bangk	-15097
▁barbe	-15098
▁baref	-15099
4"	-15100
.21	-15101
7.2	-15102
923	-15103
994	-15104
auc	-15105
bus	-15106
cis	-15107
ckv	-15108
cry	-15109
dro	-15110
dus	-15111
ear	-15112
etb	-15113
etw	-15114
gri	-15115
het	-15116
hte	-15117
ipt	-15118
iry	-15119
ono	-15120
ouc	-15121
pef	-15122
pol	-15123
rip	-15124
rry	-15125
ryd	-15126
set	-15127
uct	-15128
vri	-15129
ymp	-15130
yum	-15131
▁.1	-15132
▁9+	-15133
▁wi	-15134
arch	-15135
arli	-15136
beck	-15137
conw	-15138
erat	-15139
erri	-15140
etar	-15141
icam	-15142
inet	-15143
legg	-15144
mpie	-15145
nite	-15146
oost	-15147
oril	-15148
oyst	-15149
pbbq	-15150
punk	-15151
roch	-15152
upto	-15153
urie	-15154
urry	-15155
urus	-15156
ysco	-15157
▁(3/	-15158
▁557	-15159
▁cry	-15160
▁dus	-15161
▁fio	-15162
▁lab	-15163
▁nis	-15164
▁pow	-15165
▁sto	-15166
▁stu	-15167
▁sus	-15168
▁taj	-15169
▁tel	-15170
▁whe	-15171
▁yel	-15172
allon	-15173
berte	-15174
chero	-15175
zelli	-15176
▁froo	-15177
▁moja	-15178
▁roch	-15179
▁stic	-15180
▁todd	-15181
▁turt	-15182
▁whis	-15183
terere	-15184
▁bearc	-15185
▁beign	-15186
▁bellw	-15187
▁benef	-15188
▁birth	-15189
▁biscu	-15190
▁blint	-15191
▁blond	-15192
▁bolan	-15193
▁bombs	-15194
▁bonel	-15195
▁bound	-15196
▁bouqu	-15197
▁bourb	-15198
▁brach	-15199
eg	-15200
.44	-15201
0.5	-15202
2.7	-15203
251	-15204
388	-15205
7.6	-15206
703	-15207
8.8	-15208
848	-15209
akb	-15210
aks	-15211
cet	-15212
clo	-15213
cur	-15214
cus	-15215
cuy	-15216
div	-15217
eah	-15218
enr	-15219
etz	-15220
ias	-15221
kak	-15222
lak	-15223
lof	-15224
lom	-15225
lot	-15226
lou	-15227
loy	-15228
net	-15229
pas	-15230
pet	-15231
riz	-15232
rlo	-15233
sas	-15234
uad	-15235
zie	-15236
zlo	-15237
zra	-15238
▁cm	-15239
▁hs	-15240
▁ns	-15241
aged	-15242
andi	-15243
anti	-15244
aret	-15245
chet	-15246
eren	-15247
etro	-15248
loac	-15249
loat	-15250
lore	-15251
mony	-15252
onti	-15253
orki	-15254
qual	-15255
stal	-15256
uste	-15257
ysen	-15258
▁112	-15259
▁ens	-15260
▁enu	-15261
▁gin	-15262
▁hat	-15263
▁hig	-15264
▁kre	-15265
▁nak	-15266
▁pus	-15267
▁tip	-15268
▁wak	-15269
ackle	-15270
alami	-15271
gared	-15272
icago	-15273
lezza	-15274
▁acac	-15275
▁caff	-15276
▁crum	-15277
▁deat	-15278
▁ging	-15279
▁moza	-15280
▁sooz	-15281
▁subm	-15282
erryad	-15283
inster	-15284
tbread	-15285
▁breez	-15286
▁bruss	-15287
▁bulki	-15288
▁bulle	-15289
▁buste	-15290
▁caker	-15291
▁campb	-15292
▁canad	-15293
▁cante	-15294
▁capta	-15295
▁carni	-15296
▁categ	-15297
▁cater	-15298
▁check	-15299
rc	-15300
rv	-15301
.53	-15302
.62	-15303
402	-15304
813	-15305
asi	-15306
asp	-15307
asq	-15308
chu	-15309
cta	-15310
dry	-15311
eas	-15312
fas	-15313
ggw	-15314
has	-15315
igg	-15316
ilg	-15317
lin	-15318
ruc	-15319
sli	-15320
try	-15321
ueg	-15322
utb	-15323
▁27	-15324
▁tu	-15325
0546	-15326
0656	-15327
2325	-15328
5674	-15329
abis	-15330
anil	-15331
aqui	-15332
astu	-15333
ceau	-15334
crub	-15335
icko	-15336
itag	-15337
kter	-15338
lace	-15339
leas	-15340
lite	-15341
mino	-15342
ntro	-15343
ocop	-15344
rass	-15345
rico	-15346
terc	-15347
terh	-15348
terr	-15349
uter	-15350
uver	-15351
▁boh	-15352
▁dom	-15353
▁dud	-15354
▁enh	-15355
▁glu	-15356
▁has	-15357
▁pej	-15358
79909	-15359
acter	-15360
alnut	-15361
alter	-15362
amara	-15363
andes	-15364
arish	-15365
arped	-15366
cetto	-15367
gerat	-15368
ikake	-15369
ilter	-15370
itter	-15371
onter	-15372
ouble	-15373
quash	-15374
terer	-15375
terin	-15376
terra	-15377
terre	-15378
▁bald	-15379
▁blit	-15380
▁honc	-15381
▁mang	-15382
▁pete	-15383
bition	-15384
estive	-15385
ewable	-15386
▁almon	-15387
▁cheet	-15388
▁chipo	-15389
▁chise	-15390
▁choko	-15391
▁clair	-15392
▁colds	-15393
▁coles	-15394
▁colla	-15395
▁compp	-15396
▁conce	-15397
▁conch	-15398
▁conta	-15399
-0	-15400
8%	-15401
pn	-15402
èm	-15403
4.6	-15404
aga	-15405
bis	-15406
dur	-15407
ead	-15408
eis	-15409
ffl	-15410
gis	-15411
glo	-15412
gyt	-15413
isi	-15414
isv	-15415
lam	-15416
lls	-15417
oac	-15418
rev	-15419
tur	-15420
uas	-15421
urb	-15422
urg	-15423
urn	-15424
urp	-15425
urs	-15426
wal	-15427
xur	-15428
yis	-15429
yst	-15430
0251	-15431
1378	-15432
8104	-15433
ackp	-15434
alis	-15435
allo	-15436
anad	-15437
aris	-15438
arly	-15439
enes	-15440
ises	-15441
iski	-15442
isra	-15443
leur	-15444
lick	-15445
muff	-15446
ooey	-15447
ours	-15448
ppli	-15449
rawb	-15450
roas	-15451
rois	-15452
ural	-15453
urce	-15454
uris	-15455
▁#19	-15456
▁alf	-15457
▁baw	-15458
▁fis	-15459
▁peg	-15460
▁tah	-15461
amish	-15462
atini	-15463
elest	-15464
ellas	-15465
ellis	-15466
esers	-15467
imalc	-15468
ybern	-15469
▁alar	-15470
▁barb	-15471
▁baud	-15472
▁buck	-15473
▁chis	-15474
▁chur	-15475
▁douw	-15476
▁mudd	-15477
▁poun	-15478
▁prov	-15479
▁skip	-15480
▁taho	-15481
▁valu	-15482
▁walk	-15483
anding	-15484
imothy	-15485
munity	-15486
▁alcat	-15487
▁charc	-15488
▁count	-15489
▁crais	-15490
▁creat	-15491
▁cubet	-15492
▁cucum	-15493
▁cutle	-15494
▁davin	-15495
▁decor	-15496
▁delis	-15497
▁delux	-15498
▁devil	-15499
kw	-15500
358	-15501
700	-15502
92)	-15503
cad	-15504
cte	-15505
edg	-15506
erl	-15507
eyb	-15508
eyd	-15509
eym	-15510
eyw	-15511
ffy	-15512
hbo	-15513
ira	-15514
isy	-15515
kun	-15516
lds	-15517
lte	-15518
ocd	-15519
oey	-15520
onn	-15521
oun	-15522
pra	-15523
raa	-15524
rae	-15525
rau	-15526
rio	-15527
sey	-15528
sra	-15529
sun	-15530
uar	-15531
unf	-15532
uni	-15533
unl	-15534
unn	-15535
unp	-15536
wle	-15537
zid	-15538
zor	-15539
▁tc	-15540
▁tl	-15541
0001	-15542
7442	-15543
aisy	-15544
amer	-15545
arra	-15546
ason	-15547
bble	-15548
esty	-15549
ffle	-15550
ipel	-15551
oney	-15552
ooal	-15553
oste	-15554
ppet	-15555
rael	-15556
[...]
